{
  "version": "1.0",
  "truncation": null,
  "padding": null,
  "added_tokens": [
    {
      "id": 0,
      "content": "<unk>",
      "single_word": false,
      "lstrip": false,
      "rstrip": false,
      "normalized": false,
      "special": true
    },
    {
      "id": 1,
      "content": "<s>",
      "single_word": false,
      "lstrip": false,
      "rstrip": false,
      "normalized": false,
      "special": true
    },
    {
      "id": 2,
      "content": "</s>",
      "single_word": false,
      "lstrip": false,
      "rstrip": false,
      "normalized": false,
      "special": true
    },
    {
      "id": 3,
      "content": "<pad>",
      "single_word": false,
      "lstrip": false,
      "rstrip": false,
      "normalized": false,
      "special": true
    },
    {
      "id": 4,
      "content": "<eod>",
      "single_word": false,
      "lstrip": false,
      "rstrip": false,
      "normalized": false,
      "special": true
    },
    {
      "id": 5,
      "content": "<placeholder_tok_0>",
      "single_word": false,
      "lstrip": false,
      "rstrip": false,
      "normalized": false,
      "special": true
    },
    {
      "id": 6,
      "content": "<placeholder_tok_1>",
      "single_word": false,
      "lstrip": false,
      "rstrip": false,
      "normalized": false,
      "special": true
    },
    {
      "id": 7,
      "content": "<placeholder_tok_2>",
      "single_word": false,
      "lstrip": false,
      "rstrip": false,
      "normalized": false,
      "special": true
    },
    {
      "id": 8,
      "content": "<placeholder_tok_3>",
      "single_word": false,
      "lstrip": false,
      "rstrip": false,
      "normalized": false,
      "special": true
    },
    {
      "id": 9,
      "content": "<placeholder_tok_4>",
      "single_word": false,
      "lstrip": false,
      "rstrip": false,
      "normalized": false,
      "special": true
    },
    {
      "id": 10,
      "content": "<placeholder_tok_5>",
      "single_word": false,
      "lstrip": false,
      "rstrip": false,
      "normalized": false,
      "special": true
    },
    {
      "id": 11,
      "content": "<placeholder_tok_6>",
      "single_word": false,
      "lstrip": false,
      "rstrip": false,
      "normalized": false,
      "special": true
    },
    {
      "id": 12,
      "content": "<placeholder_tok_7>",
      "single_word": false,
      "lstrip": false,
      "rstrip": false,
      "normalized": false,
      "special": true
    },
    {
      "id": 13,
      "content": "<placeholder_tok_8>",
      "single_word": false,
      "lstrip": false,
      "rstrip": false,
      "normalized": false,
      "special": true
    },
    {
      "id": 14,
      "content": "<placeholder_tok_9>",
      "single_word": false,
      "lstrip": false,
      "rstrip": false,
      "normalized": false,
      "special": true
    },
    {
      "id": 15,
      "content": "<placeholder_tok_10>",
      "single_word": false,
      "lstrip": false,
      "rstrip": false,
      "normalized": false,
      "special": true
    },
    {
      "id": 16,
      "content": "<placeholder_tok_11>",
      "single_word": false,
      "lstrip": false,
      "rstrip": false,
      "normalized": false,
      "special": true
    },
    {
      "id": 17,
      "content": "<placeholder_tok_12>",
      "single_word": false,
      "lstrip": false,
      "rstrip": false,
      "normalized": false,
      "special": true
    },
    {
      "id": 18,
      "content": "<placeholder_tok_13>",
      "single_word": false,
      "lstrip": false,
      "rstrip": false,
      "normalized": false,
      "special": true
    },
    {
      "id": 19,
      "content": "<placeholder_tok_14>",
      "single_word": false,
      "lstrip": false,
      "rstrip": false,
      "normalized": false,
      "special": true
    },
    {
      "id": 20,
      "content": "<placeholder_tok_15>",
      "single_word": false,
      "lstrip": false,
      "rstrip": false,
      "normalized": false,
      "special": true
    },
    {
      "id": 21,
      "content": "<placeholder_tok_16>",
      "single_word": false,
      "lstrip": false,
      "rstrip": false,
      "normalized": false,
      "special": true
    },
    {
      "id": 22,
      "content": "<placeholder_tok_17>",
      "single_word": false,
      "lstrip": false,
      "rstrip": false,
      "normalized": false,
      "special": true
    },
    {
      "id": 23,
      "content": "<placeholder_tok_18>",
      "single_word": false,
      "lstrip": false,
      "rstrip": false,
      "normalized": false,
      "special": true
    },
    {
      "id": 24,
      "content": "<placeholder_tok_19>",
      "single_word": false,
      "lstrip": false,
      "rstrip": false,
      "normalized": false,
      "special": true
    },
    {
      "id": 25,
      "content": "<placeholder_tok_20>",
      "single_word": false,
      "lstrip": false,
      "rstrip": false,
      "normalized": false,
      "special": true
    },
    {
      "id": 26,
      "content": "<placeholder_tok_21>",
      "single_word": false,
      "lstrip": false,
      "rstrip": false,
      "normalized": false,
      "special": true
    },
    {
      "id": 27,
      "content": "<placeholder_tok_22>",
      "single_word": false,
      "lstrip": false,
      "rstrip": false,
      "normalized": false,
      "special": true
    },
    {
      "id": 28,
      "content": "<placeholder_tok_23>",
      "single_word": false,
      "lstrip": false,
      "rstrip": false,
      "normalized": false,
      "special": true
    },
    {
      "id": 29,
      "content": "<placeholder_tok_24>",
      "single_word": false,
      "lstrip": false,
      "rstrip": false,
      "normalized": false,
      "special": true
    },
    {
      "id": 30,
      "content": "<placeholder_tok_25>",
      "single_word": false,
      "lstrip": false,
      "rstrip": false,
      "normalized": false,
      "special": true
    },
    {
      "id": 31,
      "content": "<placeholder_tok_26>",
      "single_word": false,
      "lstrip": false,
      "rstrip": false,
      "normalized": false,
      "special": true
    },
    {
      "id": 32,
      "content": "<placeholder_tok_27>",
      "single_word": false,
      "lstrip": false,
      "rstrip": false,
      "normalized": false,
      "special": true
    },
    {
      "id": 33,
      "content": "<placeholder_tok_28>",
      "single_word": false,
      "lstrip": false,
      "rstrip": false,
      "normalized": false,
      "special": true
    },
    {
      "id": 34,
      "content": "<placeholder_tok_29>",
      "single_word": false,
      "lstrip": false,
      "rstrip": false,
      "normalized": false,
      "special": true
    },
    {
      "id": 35,
      "content": "<placeholder_tok_30>",
      "single_word": false,
      "lstrip": false,
      "rstrip": false,
      "normalized": false,
      "special": true
    },
    {
      "id": 36,
      "content": "<placeholder_tok_31>",
      "single_word": false,
      "lstrip": false,
      "rstrip": false,
      "normalized": false,
      "special": true
    },
    {
      "id": 37,
      "content": "<placeholder_tok_32>",
      "single_word": false,
      "lstrip": false,
      "rstrip": false,
      "normalized": false,
      "special": true
    },
    {
      "id": 38,
      "content": "<placeholder_tok_33>",
      "single_word": false,
      "lstrip": false,
      "rstrip": false,
      "normalized": false,
      "special": true
    },
    {
      "id": 39,
      "content": "<placeholder_tok_34>",
      "single_word": false,
      "lstrip": false,
      "rstrip": false,
      "normalized": false,
      "special": true
    },
    {
      "id": 40,
      "content": "<placeholder_tok_35>",
      "single_word": false,
      "lstrip": false,
      "rstrip": false,
      "normalized": false,
      "special": true
    },
    {
      "id": 41,
      "content": "<placeholder_tok_36>",
      "single_word": false,
      "lstrip": false,
      "rstrip": false,
      "normalized": false,
      "special": true
    },
    {
      "id": 42,
      "content": "<placeholder_tok_37>",
      "single_word": false,
      "lstrip": false,
      "rstrip": false,
      "normalized": false,
      "special": true
    },
    {
      "id": 43,
      "content": "<placeholder_tok_38>",
      "single_word": false,
      "lstrip": false,
      "rstrip": false,
      "normalized": false,
      "special": true
    },
    {
      "id": 44,
      "content": "<placeholder_tok_39>",
      "single_word": false,
      "lstrip": false,
      "rstrip": false,
      "normalized": false,
      "special": true
    },
    {
      "id": 45,
      "content": "<placeholder_tok_40>",
      "single_word": false,
      "lstrip": false,
      "rstrip": false,
      "normalized": false,
      "special": true
    },
    {
      "id": 46,
      "content": "<placeholder_tok_41>",
      "single_word": false,
      "lstrip": false,
      "rstrip": false,
      "normalized": false,
      "special": true
    },
    {
      "id": 47,
      "content": "<placeholder_tok_42>",
      "single_word": false,
      "lstrip": false,
      "rstrip": false,
      "normalized": false,
      "special": true
    },
    {
      "id": 48,
      "content": "<placeholder_tok_43>",
      "single_word": false,
      "lstrip": false,
      "rstrip": false,
      "normalized": false,
      "special": true
    },
    {
      "id": 49,
      "content": "<placeholder_tok_44>",
      "single_word": false,
      "lstrip": false,
      "rstrip": false,
      "normalized": false,
      "special": true
    },
    {
      "id": 50,
      "content": "<placeholder_tok_45>",
      "single_word": false,
      "lstrip": false,
      "rstrip": false,
      "normalized": false,
      "special": true
    },
    {
      "id": 51,
      "content": "<placeholder_tok_46>",
      "single_word": false,
      "lstrip": false,
      "rstrip": false,
      "normalized": false,
      "special": true
    },
    {
      "id": 52,
      "content": "<placeholder_tok_47>",
      "single_word": false,
      "lstrip": false,
      "rstrip": false,
      "normalized": false,
      "special": true
    },
    {
      "id": 53,
      "content": "<placeholder_tok_48>",
      "single_word": false,
      "lstrip": false,
      "rstrip": false,
      "normalized": false,
      "special": true
    },
    {
      "id": 54,
      "content": "<placeholder_tok_49>",
      "single_word": false,
      "lstrip": false,
      "rstrip": false,
      "normalized": false,
      "special": true
    },
    {
      "id": 55,
      "content": "<placeholder_tok_50>",
      "single_word": false,
      "lstrip": false,
      "rstrip": false,
      "normalized": false,
      "special": true
    },
    {
      "id": 56,
      "content": "<placeholder_tok_51>",
      "single_word": false,
      "lstrip": false,
      "rstrip": false,
      "normalized": false,
      "special": true
    },
    {
      "id": 57,
      "content": "<placeholder_tok_52>",
      "single_word": false,
      "lstrip": false,
      "rstrip": false,
      "normalized": false,
      "special": true
    },
    {
      "id": 58,
      "content": "<placeholder_tok_53>",
      "single_word": false,
      "lstrip": false,
      "rstrip": false,
      "normalized": false,
      "special": true
    },
    {
      "id": 59,
      "content": "<placeholder_tok_54>",
      "single_word": false,
      "lstrip": false,
      "rstrip": false,
      "normalized": false,
      "special": true
    },
    {
      "id": 60,
      "content": "<placeholder_tok_55>",
      "single_word": false,
      "lstrip": false,
      "rstrip": false,
      "normalized": false,
      "special": true
    },
    {
      "id": 61,
      "content": "<placeholder_tok_56>",
      "single_word": false,
      "lstrip": false,
      "rstrip": false,
      "normalized": false,
      "special": true
    },
    {
      "id": 62,
      "content": "<placeholder_tok_57>",
      "single_word": false,
      "lstrip": false,
      "rstrip": false,
      "normalized": false,
      "special": true
    },
    {
      "id": 63,
      "content": "<placeholder_tok_58>",
      "single_word": false,
      "lstrip": false,
      "rstrip": false,
      "normalized": false,
      "special": true
    },
    {
      "id": 64,
      "content": "<placeholder_tok_59>",
      "single_word": false,
      "lstrip": false,
      "rstrip": false,
      "normalized": false,
      "special": true
    },
    {
      "id": 65,
      "content": "<placeholder_tok_60>",
      "single_word": false,
      "lstrip": false,
      "rstrip": false,
      "normalized": false,
      "special": true
    },
    {
      "id": 66,
      "content": "<placeholder_tok_61>",
      "single_word": false,
      "lstrip": false,
      "rstrip": false,
      "normalized": false,
      "special": true
    },
    {
      "id": 67,
      "content": "<placeholder_tok_62>",
      "single_word": false,
      "lstrip": false,
      "rstrip": false,
      "normalized": false,
      "special": true
    },
    {
      "id": 68,
      "content": "<placeholder_tok_63>",
      "single_word": false,
      "lstrip": false,
      "rstrip": false,
      "normalized": false,
      "special": true
    },
    {
      "id": 69,
      "content": "<placeholder_tok_64>",
      "single_word": false,
      "lstrip": false,
      "rstrip": false,
      "normalized": false,
      "special": true
    },
    {
      "id": 70,
      "content": "<placeholder_tok_65>",
      "single_word": false,
      "lstrip": false,
      "rstrip": false,
      "normalized": false,
      "special": true
    },
    {
      "id": 71,
      "content": "<placeholder_tok_66>",
      "single_word": false,
      "lstrip": false,
      "rstrip": false,
      "normalized": false,
      "special": true
    },
    {
      "id": 72,
      "content": "<placeholder_tok_67>",
      "single_word": false,
      "lstrip": false,
      "rstrip": false,
      "normalized": false,
      "special": true
    },
    {
      "id": 73,
      "content": "<placeholder_tok_68>",
      "single_word": false,
      "lstrip": false,
      "rstrip": false,
      "normalized": false,
      "special": true
    },
    {
      "id": 74,
      "content": "<placeholder_tok_69>",
      "single_word": false,
      "lstrip": false,
      "rstrip": false,
      "normalized": false,
      "special": true
    },
    {
      "id": 75,
      "content": "<placeholder_tok_70>",
      "single_word": false,
      "lstrip": false,
      "rstrip": false,
      "normalized": false,
      "special": true
    },
    {
      "id": 76,
      "content": "<placeholder_tok_71>",
      "single_word": false,
      "lstrip": false,
      "rstrip": false,
      "normalized": false,
      "special": true
    },
    {
      "id": 77,
      "content": "<placeholder_tok_72>",
      "single_word": false,
      "lstrip": false,
      "rstrip": false,
      "normalized": false,
      "special": true
    },
    {
      "id": 78,
      "content": "<placeholder_tok_73>",
      "single_word": false,
      "lstrip": false,
      "rstrip": false,
      "normalized": false,
      "special": true
    },
    {
      "id": 79,
      "content": "<placeholder_tok_74>",
      "single_word": false,
      "lstrip": false,
      "rstrip": false,
      "normalized": false,
      "special": true
    },
    {
      "id": 80,
      "content": "<placeholder_tok_75>",
      "single_word": false,
      "lstrip": false,
      "rstrip": false,
      "normalized": false,
      "special": true
    },
    {
      "id": 81,
      "content": "<placeholder_tok_76>",
      "single_word": false,
      "lstrip": false,
      "rstrip": false,
      "normalized": false,
      "special": true
    },
    {
      "id": 82,
      "content": "<placeholder_tok_77>",
      "single_word": false,
      "lstrip": false,
      "rstrip": false,
      "normalized": false,
      "special": true
    },
    {
      "id": 83,
      "content": "<placeholder_tok_78>",
      "single_word": false,
      "lstrip": false,
      "rstrip": false,
      "normalized": false,
      "special": true
    },
    {
      "id": 84,
      "content": "<placeholder_tok_79>",
      "single_word": false,
      "lstrip": false,
      "rstrip": false,
      "normalized": false,
      "special": true
    },
    {
      "id": 85,
      "content": "<placeholder_tok_80>",
      "single_word": false,
      "lstrip": false,
      "rstrip": false,
      "normalized": false,
      "special": true
    },
    {
      "id": 86,
      "content": "<placeholder_tok_81>",
      "single_word": false,
      "lstrip": false,
      "rstrip": false,
      "normalized": false,
      "special": true
    },
    {
      "id": 87,
      "content": "<placeholder_tok_82>",
      "single_word": false,
      "lstrip": false,
      "rstrip": false,
      "normalized": false,
      "special": true
    },
    {
      "id": 88,
      "content": "<placeholder_tok_83>",
      "single_word": false,
      "lstrip": false,
      "rstrip": false,
      "normalized": false,
      "special": true
    },
    {
      "id": 89,
      "content": "<placeholder_tok_84>",
      "single_word": false,
      "lstrip": false,
      "rstrip": false,
      "normalized": false,
      "special": true
    },
    {
      "id": 90,
      "content": "<placeholder_tok_85>",
      "single_word": false,
      "lstrip": false,
      "rstrip": false,
      "normalized": false,
      "special": true
    },
    {
      "id": 91,
      "content": "<placeholder_tok_86>",
      "single_word": false,
      "lstrip": false,
      "rstrip": false,
      "normalized": false,
      "special": true
    },
    {
      "id": 92,
      "content": "<placeholder_tok_87>",
      "single_word": false,
      "lstrip": false,
      "rstrip": false,
      "normalized": false,
      "special": true
    },
    {
      "id": 93,
      "content": "<placeholder_tok_88>",
      "single_word": false,
      "lstrip": false,
      "rstrip": false,
      "normalized": false,
      "special": true
    },
    {
      "id": 94,
      "content": "<placeholder_tok_89>",
      "single_word": false,
      "lstrip": false,
      "rstrip": false,
      "normalized": false,
      "special": true
    },
    {
      "id": 95,
      "content": "<placeholder_tok_90>",
      "single_word": false,
      "lstrip": false,
      "rstrip": false,
      "normalized": false,
      "special": true
    },
    {
      "id": 96,
      "content": "<placeholder_tok_91>",
      "single_word": false,
      "lstrip": false,
      "rstrip": false,
      "normalized": false,
      "special": true
    },
    {
      "id": 97,
      "content": "<placeholder_tok_92>",
      "single_word": false,
      "lstrip": false,
      "rstrip": false,
      "normalized": false,
      "special": true
    },
    {
      "id": 98,
      "content": "<placeholder_tok_93>",
      "single_word": false,
      "lstrip": false,
      "rstrip": false,
      "normalized": false,
      "special": true
    },
    {
      "id": 99,
      "content": "<placeholder_tok_94>",
      "single_word": false,
      "lstrip": false,
      "rstrip": false,
      "normalized": false,
      "special": true
    },
    {
      "id": 100,
      "content": "<placeholder_tok_95>",
      "single_word": false,
      "lstrip": false,
      "rstrip": false,
      "normalized": false,
      "special": true
    },
    {
      "id": 101,
      "content": "<placeholder_tok_96>",
      "single_word": false,
      "lstrip": false,
      "rstrip": false,
      "normalized": false,
      "special": true
    },
    {
      "id": 102,
      "content": "<placeholder_tok_97>",
      "single_word": false,
      "lstrip": false,
      "rstrip": false,
      "normalized": false,
      "special": true
    },
    {
      "id": 103,
      "content": "<placeholder_tok_98>",
      "single_word": false,
      "lstrip": false,
      "rstrip": false,
      "normalized": false,
      "special": true
    },
    {
      "id": 104,
      "content": "<placeholder_tok_99>",
      "single_word": false,
      "lstrip": false,
      "rstrip": false,
      "normalized": false,
      "special": true
    },
    {
      "id": 105,
      "content": "<placeholder_tok_100>",
      "single_word": false,
      "lstrip": false,
      "rstrip": false,
      "normalized": false,
      "special": true
    },
    {
      "id": 106,
      "content": "<placeholder_tok_101>",
      "single_word": false,
      "lstrip": false,
      "rstrip": false,
      "normalized": false,
      "special": true
    },
    {
      "id": 107,
      "content": "<placeholder_tok_102>",
      "single_word": false,
      "lstrip": false,
      "rstrip": false,
      "normalized": false,
      "special": true
    },
    {
      "id": 108,
      "content": "<placeholder_tok_103>",
      "single_word": false,
      "lstrip": false,
      "rstrip": false,
      "normalized": false,
      "special": true
    },
    {
      "id": 109,
      "content": "<placeholder_tok_104>",
      "single_word": false,
      "lstrip": false,
      "rstrip": false,
      "normalized": false,
      "special": true
    },
    {
      "id": 110,
      "content": "<placeholder_tok_105>",
      "single_word": false,
      "lstrip": false,
      "rstrip": false,
      "normalized": false,
      "special": true
    },
    {
      "id": 111,
      "content": "<placeholder_tok_106>",
      "single_word": false,
      "lstrip": false,
      "rstrip": false,
      "normalized": false,
      "special": true
    },
    {
      "id": 112,
      "content": "<placeholder_tok_107>",
      "single_word": false,
      "lstrip": false,
      "rstrip": false,
      "normalized": false,
      "special": true
    },
    {
      "id": 113,
      "content": "<placeholder_tok_108>",
      "single_word": false,
      "lstrip": false,
      "rstrip": false,
      "normalized": false,
      "special": true
    },
    {
      "id": 114,
      "content": "<placeholder_tok_109>",
      "single_word": false,
      "lstrip": false,
      "rstrip": false,
      "normalized": false,
      "special": true
    },
    {
      "id": 115,
      "content": "<placeholder_tok_110>",
      "single_word": false,
      "lstrip": false,
      "rstrip": false,
      "normalized": false,
      "special": true
    },
    {
      "id": 116,
      "content": "<placeholder_tok_111>",
      "single_word": false,
      "lstrip": false,
      "rstrip": false,
      "normalized": false,
      "special": true
    },
    {
      "id": 117,
      "content": "<placeholder_tok_112>",
      "single_word": false,
      "lstrip": false,
      "rstrip": false,
      "normalized": false,
      "special": true
    },
    {
      "id": 118,
      "content": "<placeholder_tok_113>",
      "single_word": false,
      "lstrip": false,
      "rstrip": false,
      "normalized": false,
      "special": true
    },
    {
      "id": 119,
      "content": "<placeholder_tok_114>",
      "single_word": false,
      "lstrip": false,
      "rstrip": false,
      "normalized": false,
      "special": true
    },
    {
      "id": 120,
      "content": "<placeholder_tok_115>",
      "single_word": false,
      "lstrip": false,
      "rstrip": false,
      "normalized": false,
      "special": true
    },
    {
      "id": 121,
      "content": "<placeholder_tok_116>",
      "single_word": false,
      "lstrip": false,
      "rstrip": false,
      "normalized": false,
      "special": true
    },
    {
      "id": 122,
      "content": "<placeholder_tok_117>",
      "single_word": false,
      "lstrip": false,
      "rstrip": false,
      "normalized": false,
      "special": true
    },
    {
      "id": 123,
      "content": "<placeholder_tok_118>",
      "single_word": false,
      "lstrip": false,
      "rstrip": false,
      "normalized": false,
      "special": true
    },
    {
      "id": 124,
      "content": "<placeholder_tok_119>",
      "single_word": false,
      "lstrip": false,
      "rstrip": false,
      "normalized": false,
      "special": true
    },
    {
      "id": 125,
      "content": "<placeholder_tok_120>",
      "single_word": false,
      "lstrip": false,
      "rstrip": false,
      "normalized": false,
      "special": true
    },
    {
      "id": 126,
      "content": "<placeholder_tok_121>",
      "single_word": false,
      "lstrip": false,
      "rstrip": false,
      "normalized": false,
      "special": true
    },
    {
      "id": 127,
      "content": "<placeholder_tok_122>",
      "single_word": false,
      "lstrip": false,
      "rstrip": false,
      "normalized": false,
      "special": true
    },
    {
      "id": 128,
      "content": "<placeholder_tok_123>",
      "single_word": false,
      "lstrip": false,
      "rstrip": false,
      "normalized": false,
      "special": true
    },
    {
      "id": 129,
      "content": "<placeholder_tok_124>",
      "single_word": false,
      "lstrip": false,
      "rstrip": false,
      "normalized": false,
      "special": true
    },
    {
      "id": 130,
      "content": "<placeholder_tok_125>",
      "single_word": false,
      "lstrip": false,
      "rstrip": false,
      "normalized": false,
      "special": true
    },
    {
      "id": 131,
      "content": "<placeholder_tok_126>",
      "single_word": false,
      "lstrip": false,
      "rstrip": false,
      "normalized": false,
      "special": true
    },
    {
      "id": 132,
      "content": "<placeholder_tok_127>",
      "single_word": false,
      "lstrip": false,
      "rstrip": false,
      "normalized": false,
      "special": true
    },
    {
      "id": 133,
      "content": "<placeholder_tok_128>",
      "single_word": false,
      "lstrip": false,
      "rstrip": false,
      "normalized": false,
      "special": true
    },
    {
      "id": 134,
      "content": "<placeholder_tok_129>",
      "single_word": false,
      "lstrip": false,
      "rstrip": false,
      "normalized": false,
      "special": true
    },
    {
      "id": 135,
      "content": "<placeholder_tok_130>",
      "single_word": false,
      "lstrip": false,
      "rstrip": false,
      "normalized": false,
      "special": true
    },
    {
      "id": 136,
      "content": "<placeholder_tok_131>",
      "single_word": false,
      "lstrip": false,
      "rstrip": false,
      "normalized": false,
      "special": true
    },
    {
      "id": 137,
      "content": "<placeholder_tok_132>",
      "single_word": false,
      "lstrip": false,
      "rstrip": false,
      "normalized": false,
      "special": true
    },
    {
      "id": 138,
      "content": "<placeholder_tok_133>",
      "single_word": false,
      "lstrip": false,
      "rstrip": false,
      "normalized": false,
      "special": true
    },
    {
      "id": 139,
      "content": "<placeholder_tok_134>",
      "single_word": false,
      "lstrip": false,
      "rstrip": false,
      "normalized": false,
      "special": true
    },
    {
      "id": 140,
      "content": "<placeholder_tok_135>",
      "single_word": false,
      "lstrip": false,
      "rstrip": false,
      "normalized": false,
      "special": true
    },
    {
      "id": 141,
      "content": "<placeholder_tok_136>",
      "single_word": false,
      "lstrip": false,
      "rstrip": false,
      "normalized": false,
      "special": true
    },
    {
      "id": 142,
      "content": "<placeholder_tok_137>",
      "single_word": false,
      "lstrip": false,
      "rstrip": false,
      "normalized": false,
      "special": true
    },
    {
      "id": 143,
      "content": "<placeholder_tok_138>",
      "single_word": false,
      "lstrip": false,
      "rstrip": false,
      "normalized": false,
      "special": true
    },
    {
      "id": 144,
      "content": "<placeholder_tok_139>",
      "single_word": false,
      "lstrip": false,
      "rstrip": false,
      "normalized": false,
      "special": true
    },
    {
      "id": 145,
      "content": "<placeholder_tok_140>",
      "single_word": false,
      "lstrip": false,
      "rstrip": false,
      "normalized": false,
      "special": true
    },
    {
      "id": 146,
      "content": "<placeholder_tok_141>",
      "single_word": false,
      "lstrip": false,
      "rstrip": false,
      "normalized": false,
      "special": true
    },
    {
      "id": 147,
      "content": "<placeholder_tok_142>",
      "single_word": false,
      "lstrip": false,
      "rstrip": false,
      "normalized": false,
      "special": true
    },
    {
      "id": 148,
      "content": "<placeholder_tok_143>",
      "single_word": false,
      "lstrip": false,
      "rstrip": false,
      "normalized": false,
      "special": true
    },
    {
      "id": 149,
      "content": "<placeholder_tok_144>",
      "single_word": false,
      "lstrip": false,
      "rstrip": false,
      "normalized": false,
      "special": true
    },
    {
      "id": 150,
      "content": "<placeholder_tok_145>",
      "single_word": false,
      "lstrip": false,
      "rstrip": false,
      "normalized": false,
      "special": true
    },
    {
      "id": 151,
      "content": "<placeholder_tok_146>",
      "single_word": false,
      "lstrip": false,
      "rstrip": false,
      "normalized": false,
      "special": true
    },
    {
      "id": 152,
      "content": "<placeholder_tok_147>",
      "single_word": false,
      "lstrip": false,
      "rstrip": false,
      "normalized": false,
      "special": true
    },
    {
      "id": 153,
      "content": "<placeholder_tok_148>",
      "single_word": false,
      "lstrip": false,
      "rstrip": false,
      "normalized": false,
      "special": true
    },
    {
      "id": 154,
      "content": "<placeholder_tok_149>",
      "single_word": false,
      "lstrip": false,
      "rstrip": false,
      "normalized": false,
      "special": true
    },
    {
      "id": 155,
      "content": "<placeholder_tok_150>",
      "single_word": false,
      "lstrip": false,
      "rstrip": false,
      "normalized": false,
      "special": true
    },
    {
      "id": 156,
      "content": "<placeholder_tok_151>",
      "single_word": false,
      "lstrip": false,
      "rstrip": false,
      "normalized": false,
      "special": true
    },
    {
      "id": 157,
      "content": "<placeholder_tok_152>",
      "single_word": false,
      "lstrip": false,
      "rstrip": false,
      "normalized": false,
      "special": true
    },
    {
      "id": 158,
      "content": "<placeholder_tok_153>",
      "single_word": false,
      "lstrip": false,
      "rstrip": false,
      "normalized": false,
      "special": true
    },
    {
      "id": 159,
      "content": "<placeholder_tok_154>",
      "single_word": false,
      "lstrip": false,
      "rstrip": false,
      "normalized": false,
      "special": true
    },
    {
      "id": 160,
      "content": "<placeholder_tok_155>",
      "single_word": false,
      "lstrip": false,
      "rstrip": false,
      "normalized": false,
      "special": true
    },
    {
      "id": 161,
      "content": "<placeholder_tok_156>",
      "single_word": false,
      "lstrip": false,
      "rstrip": false,
      "normalized": false,
      "special": true
    },
    {
      "id": 162,
      "content": "<placeholder_tok_157>",
      "single_word": false,
      "lstrip": false,
      "rstrip": false,
      "normalized": false,
      "special": true
    },
    {
      "id": 163,
      "content": "<placeholder_tok_158>",
      "single_word": false,
      "lstrip": false,
      "rstrip": false,
      "normalized": false,
      "special": true
    },
    {
      "id": 164,
      "content": "<placeholder_tok_159>",
      "single_word": false,
      "lstrip": false,
      "rstrip": false,
      "normalized": false,
      "special": true
    },
    {
      "id": 165,
      "content": "<placeholder_tok_160>",
      "single_word": false,
      "lstrip": false,
      "rstrip": false,
      "normalized": false,
      "special": true
    },
    {
      "id": 166,
      "content": "<placeholder_tok_161>",
      "single_word": false,
      "lstrip": false,
      "rstrip": false,
      "normalized": false,
      "special": true
    },
    {
      "id": 167,
      "content": "<placeholder_tok_162>",
      "single_word": false,
      "lstrip": false,
      "rstrip": false,
      "normalized": false,
      "special": true
    },
    {
      "id": 168,
      "content": "<placeholder_tok_163>",
      "single_word": false,
      "lstrip": false,
      "rstrip": false,
      "normalized": false,
      "special": true
    },
    {
      "id": 169,
      "content": "<placeholder_tok_164>",
      "single_word": false,
      "lstrip": false,
      "rstrip": false,
      "normalized": false,
      "special": true
    },
    {
      "id": 170,
      "content": "<placeholder_tok_165>",
      "single_word": false,
      "lstrip": false,
      "rstrip": false,
      "normalized": false,
      "special": true
    },
    {
      "id": 171,
      "content": "<placeholder_tok_166>",
      "single_word": false,
      "lstrip": false,
      "rstrip": false,
      "normalized": false,
      "special": true
    },
    {
      "id": 172,
      "content": "<placeholder_tok_167>",
      "single_word": false,
      "lstrip": false,
      "rstrip": false,
      "normalized": false,
      "special": true
    },
    {
      "id": 173,
      "content": "<placeholder_tok_168>",
      "single_word": false,
      "lstrip": false,
      "rstrip": false,
      "normalized": false,
      "special": true
    },
    {
      "id": 174,
      "content": "<placeholder_tok_169>",
      "single_word": false,
      "lstrip": false,
      "rstrip": false,
      "normalized": false,
      "special": true
    },
    {
      "id": 175,
      "content": "<placeholder_tok_170>",
      "single_word": false,
      "lstrip": false,
      "rstrip": false,
      "normalized": false,
      "special": true
    },
    {
      "id": 176,
      "content": "<placeholder_tok_171>",
      "single_word": false,
      "lstrip": false,
      "rstrip": false,
      "normalized": false,
      "special": true
    },
    {
      "id": 177,
      "content": "<placeholder_tok_172>",
      "single_word": false,
      "lstrip": false,
      "rstrip": false,
      "normalized": false,
      "special": true
    },
    {
      "id": 178,
      "content": "<placeholder_tok_173>",
      "single_word": false,
      "lstrip": false,
      "rstrip": false,
      "normalized": false,
      "special": true
    },
    {
      "id": 179,
      "content": "<placeholder_tok_174>",
      "single_word": false,
      "lstrip": false,
      "rstrip": false,
      "normalized": false,
      "special": true
    },
    {
      "id": 180,
      "content": "<placeholder_tok_175>",
      "single_word": false,
      "lstrip": false,
      "rstrip": false,
      "normalized": false,
      "special": true
    },
    {
      "id": 181,
      "content": "<placeholder_tok_176>",
      "single_word": false,
      "lstrip": false,
      "rstrip": false,
      "normalized": false,
      "special": true
    },
    {
      "id": 182,
      "content": "<placeholder_tok_177>",
      "single_word": false,
      "lstrip": false,
      "rstrip": false,
      "normalized": false,
      "special": true
    },
    {
      "id": 183,
      "content": "<placeholder_tok_178>",
      "single_word": false,
      "lstrip": false,
      "rstrip": false,
      "normalized": false,
      "special": true
    },
    {
      "id": 184,
      "content": "<placeholder_tok_179>",
      "single_word": false,
      "lstrip": false,
      "rstrip": false,
      "normalized": false,
      "special": true
    },
    {
      "id": 185,
      "content": "<placeholder_tok_180>",
      "single_word": false,
      "lstrip": false,
      "rstrip": false,
      "normalized": false,
      "special": true
    },
    {
      "id": 186,
      "content": "<placeholder_tok_181>",
      "single_word": false,
      "lstrip": false,
      "rstrip": false,
      "normalized": false,
      "special": true
    },
    {
      "id": 187,
      "content": "<placeholder_tok_182>",
      "single_word": false,
      "lstrip": false,
      "rstrip": false,
      "normalized": false,
      "special": true
    },
    {
      "id": 188,
      "content": "<placeholder_tok_183>",
      "single_word": false,
      "lstrip": false,
      "rstrip": false,
      "normalized": false,
      "special": true
    },
    {
      "id": 189,
      "content": "<placeholder_tok_184>",
      "single_word": false,
      "lstrip": false,
      "rstrip": false,
      "normalized": false,
      "special": true
    },
    {
      "id": 190,
      "content": "<placeholder_tok_185>",
      "single_word": false,
      "lstrip": false,
      "rstrip": false,
      "normalized": false,
      "special": true
    },
    {
      "id": 191,
      "content": "<placeholder_tok_186>",
      "single_word": false,
      "lstrip": false,
      "rstrip": false,
      "normalized": false,
      "special": true
    },
    {
      "id": 192,
      "content": "<placeholder_tok_187>",
      "single_word": false,
      "lstrip": false,
      "rstrip": false,
      "normalized": false,
      "special": true
    },
    {
      "id": 193,
      "content": "<placeholder_tok_188>",
      "single_word": false,
      "lstrip": false,
      "rstrip": false,
      "normalized": false,
      "special": true
    },
    {
      "id": 194,
      "content": "<placeholder_tok_189>",
      "single_word": false,
      "lstrip": false,
      "rstrip": false,
      "normalized": false,
      "special": true
    },
    {
      "id": 195,
      "content": "<placeholder_tok_190>",
      "single_word": false,
      "lstrip": false,
      "rstrip": false,
      "normalized": false,
      "special": true
    },
    {
      "id": 196,
      "content": "<placeholder_tok_191>",
      "single_word": false,
      "lstrip": false,
      "rstrip": false,
      "normalized": false,
      "special": true
    },
    {
      "id": 197,
      "content": "<placeholder_tok_192>",
      "single_word": false,
      "lstrip": false,
      "rstrip": false,
      "normalized": false,
      "special": true
    },
    {
      "id": 198,
      "content": "<placeholder_tok_193>",
      "single_word": false,
      "lstrip": false,
      "rstrip": false,
      "normalized": false,
      "special": true
    },
    {
      "id": 199,
      "content": "<placeholder_tok_194>",
      "single_word": false,
      "lstrip": false,
      "rstrip": false,
      "normalized": false,
      "special": true
    },
    {
      "id": 200,
      "content": "<placeholder_tok_195>",
      "single_word": false,
      "lstrip": false,
      "rstrip": false,
      "normalized": false,
      "special": true
    },
    {
      "id": 201,
      "content": "<placeholder_tok_196>",
      "single_word": false,
      "lstrip": false,
      "rstrip": false,
      "normalized": false,
      "special": true
    },
    {
      "id": 202,
      "content": "<placeholder_tok_197>",
      "single_word": false,
      "lstrip": false,
      "rstrip": false,
      "normalized": false,
      "special": true
    },
    {
      "id": 203,
      "content": "<placeholder_tok_198>",
      "single_word": false,
      "lstrip": false,
      "rstrip": false,
      "normalized": false,
      "special": true
    },
    {
      "id": 204,
      "content": "<placeholder_tok_199>",
      "single_word": false,
      "lstrip": false,
      "rstrip": false,
      "normalized": false,
      "special": true
    },
    {
      "id": 205,
      "content": "<placeholder_tok_200>",
      "single_word": false,
      "lstrip": false,
      "rstrip": false,
      "normalized": false,
      "special": true
    },
    {
      "id": 206,
      "content": "<placeholder_tok_201>",
      "single_word": false,
      "lstrip": false,
      "rstrip": false,
      "normalized": false,
      "special": true
    },
    {
      "id": 207,
      "content": "<placeholder_tok_202>",
      "single_word": false,
      "lstrip": false,
      "rstrip": false,
      "normalized": false,
      "special": true
    },
    {
      "id": 208,
      "content": "<placeholder_tok_203>",
      "single_word": false,
      "lstrip": false,
      "rstrip": false,
      "normalized": false,
      "special": true
    },
    {
      "id": 209,
      "content": "<placeholder_tok_204>",
      "single_word": false,
      "lstrip": false,
      "rstrip": false,
      "normalized": false,
      "special": true
    },
    {
      "id": 210,
      "content": "<placeholder_tok_205>",
      "single_word": false,
      "lstrip": false,
      "rstrip": false,
      "normalized": false,
      "special": true
    },
    {
      "id": 211,
      "content": "<placeholder_tok_206>",
      "single_word": false,
      "lstrip": false,
      "rstrip": false,
      "normalized": false,
      "special": true
    },
    {
      "id": 212,
      "content": "<placeholder_tok_207>",
      "single_word": false,
      "lstrip": false,
      "rstrip": false,
      "normalized": false,
      "special": true
    },
    {
      "id": 213,
      "content": "<placeholder_tok_208>",
      "single_word": false,
      "lstrip": false,
      "rstrip": false,
      "normalized": false,
      "special": true
    },
    {
      "id": 214,
      "content": "<placeholder_tok_209>",
      "single_word": false,
      "lstrip": false,
      "rstrip": false,
      "normalized": false,
      "special": true
    },
    {
      "id": 215,
      "content": "<placeholder_tok_210>",
      "single_word": false,
      "lstrip": false,
      "rstrip": false,
      "normalized": false,
      "special": true
    },
    {
      "id": 216,
      "content": "<placeholder_tok_211>",
      "single_word": false,
      "lstrip": false,
      "rstrip": false,
      "normalized": false,
      "special": true
    },
    {
      "id": 217,
      "content": "<placeholder_tok_212>",
      "single_word": false,
      "lstrip": false,
      "rstrip": false,
      "normalized": false,
      "special": true
    },
    {
      "id": 218,
      "content": "<placeholder_tok_213>",
      "single_word": false,
      "lstrip": false,
      "rstrip": false,
      "normalized": false,
      "special": true
    },
    {
      "id": 219,
      "content": "<placeholder_tok_214>",
      "single_word": false,
      "lstrip": false,
      "rstrip": false,
      "normalized": false,
      "special": true
    },
    {
      "id": 220,
      "content": "<placeholder_tok_215>",
      "single_word": false,
      "lstrip": false,
      "rstrip": false,
      "normalized": false,
      "special": true
    },
    {
      "id": 221,
      "content": "<placeholder_tok_216>",
      "single_word": false,
      "lstrip": false,
      "rstrip": false,
      "normalized": false,
      "special": true
    },
    {
      "id": 222,
      "content": "<placeholder_tok_217>",
      "single_word": false,
      "lstrip": false,
      "rstrip": false,
      "normalized": false,
      "special": true
    },
    {
      "id": 223,
      "content": "<placeholder_tok_218>",
      "single_word": false,
      "lstrip": false,
      "rstrip": false,
      "normalized": false,
      "special": true
    },
    {
      "id": 224,
      "content": "<placeholder_tok_219>",
      "single_word": false,
      "lstrip": false,
      "rstrip": false,
      "normalized": false,
      "special": true
    },
    {
      "id": 225,
      "content": "<placeholder_tok_220>",
      "single_word": false,
      "lstrip": false,
      "rstrip": false,
      "normalized": false,
      "special": true
    },
    {
      "id": 226,
      "content": "<placeholder_tok_221>",
      "single_word": false,
      "lstrip": false,
      "rstrip": false,
      "normalized": false,
      "special": true
    },
    {
      "id": 227,
      "content": "<placeholder_tok_222>",
      "single_word": false,
      "lstrip": false,
      "rstrip": false,
      "normalized": false,
      "special": true
    },
    {
      "id": 228,
      "content": "<placeholder_tok_223>",
      "single_word": false,
      "lstrip": false,
      "rstrip": false,
      "normalized": false,
      "special": true
    },
    {
      "id": 229,
      "content": "<placeholder_tok_224>",
      "single_word": false,
      "lstrip": false,
      "rstrip": false,
      "normalized": false,
      "special": true
    },
    {
      "id": 230,
      "content": "<placeholder_tok_225>",
      "single_word": false,
      "lstrip": false,
      "rstrip": false,
      "normalized": false,
      "special": true
    },
    {
      "id": 231,
      "content": "<placeholder_tok_226>",
      "single_word": false,
      "lstrip": false,
      "rstrip": false,
      "normalized": false,
      "special": true
    },
    {
      "id": 232,
      "content": "<placeholder_tok_227>",
      "single_word": false,
      "lstrip": false,
      "rstrip": false,
      "normalized": false,
      "special": true
    },
    {
      "id": 233,
      "content": "<placeholder_tok_228>",
      "single_word": false,
      "lstrip": false,
      "rstrip": false,
      "normalized": false,
      "special": true
    },
    {
      "id": 234,
      "content": "<placeholder_tok_229>",
      "single_word": false,
      "lstrip": false,
      "rstrip": false,
      "normalized": false,
      "special": true
    },
    {
      "id": 235,
      "content": "<placeholder_tok_230>",
      "single_word": false,
      "lstrip": false,
      "rstrip": false,
      "normalized": false,
      "special": true
    },
    {
      "id": 236,
      "content": "<placeholder_tok_231>",
      "single_word": false,
      "lstrip": false,
      "rstrip": false,
      "normalized": false,
      "special": true
    },
    {
      "id": 237,
      "content": "<placeholder_tok_232>",
      "single_word": false,
      "lstrip": false,
      "rstrip": false,
      "normalized": false,
      "special": true
    },
    {
      "id": 238,
      "content": "<placeholder_tok_233>",
      "single_word": false,
      "lstrip": false,
      "rstrip": false,
      "normalized": false,
      "special": true
    },
    {
      "id": 239,
      "content": "<placeholder_tok_234>",
      "single_word": false,
      "lstrip": false,
      "rstrip": false,
      "normalized": false,
      "special": true
    },
    {
      "id": 240,
      "content": "<placeholder_tok_235>",
      "single_word": false,
      "lstrip": false,
      "rstrip": false,
      "normalized": false,
      "special": true
    },
    {
      "id": 241,
      "content": "<placeholder_tok_236>",
      "single_word": false,
      "lstrip": false,
      "rstrip": false,
      "normalized": false,
      "special": true
    },
    {
      "id": 242,
      "content": "<placeholder_tok_237>",
      "single_word": false,
      "lstrip": false,
      "rstrip": false,
      "normalized": false,
      "special": true
    },
    {
      "id": 243,
      "content": "<placeholder_tok_238>",
      "single_word": false,
      "lstrip": false,
      "rstrip": false,
      "normalized": false,
      "special": true
    },
    {
      "id": 244,
      "content": "<placeholder_tok_239>",
      "single_word": false,
      "lstrip": false,
      "rstrip": false,
      "normalized": false,
      "special": true
    },
    {
      "id": 245,
      "content": "<placeholder_tok_240>",
      "single_word": false,
      "lstrip": false,
      "rstrip": false,
      "normalized": false,
      "special": true
    },
    {
      "id": 246,
      "content": "<placeholder_tok_241>",
      "single_word": false,
      "lstrip": false,
      "rstrip": false,
      "normalized": false,
      "special": true
    },
    {
      "id": 247,
      "content": "<placeholder_tok_242>",
      "single_word": false,
      "lstrip": false,
      "rstrip": false,
      "normalized": false,
      "special": true
    },
    {
      "id": 248,
      "content": "<placeholder_tok_243>",
      "single_word": false,
      "lstrip": false,
      "rstrip": false,
      "normalized": false,
      "special": true
    },
    {
      "id": 249,
      "content": "<placeholder_tok_244>",
      "single_word": false,
      "lstrip": false,
      "rstrip": false,
      "normalized": false,
      "special": true
    },
    {
      "id": 250,
      "content": "<placeholder_tok_245>",
      "single_word": false,
      "lstrip": false,
      "rstrip": false,
      "normalized": false,
      "special": true
    },
    {
      "id": 251,
      "content": "<placeholder_tok_246>",
      "single_word": false,
      "lstrip": false,
      "rstrip": false,
      "normalized": false,
      "special": true
    },
    {
      "id": 252,
      "content": "<placeholder_tok_247>",
      "single_word": false,
      "lstrip": false,
      "rstrip": false,
      "normalized": false,
      "special": true
    },
    {
      "id": 253,
      "content": "<placeholder_tok_248>",
      "single_word": false,
      "lstrip": false,
      "rstrip": false,
      "normalized": false,
      "special": true
    },
    {
      "id": 254,
      "content": "<placeholder_tok_249>",
      "single_word": false,
      "lstrip": false,
      "rstrip": false,
      "normalized": false,
      "special": true
    },
    {
      "id": 255,
      "content": "<placeholder_tok_250>",
      "single_word": false,
      "lstrip": false,
      "rstrip": false,
      "normalized": false,
      "special": true
    },
    {
      "id": 256,
      "content": "<placeholder_tok_251>",
      "single_word": false,
      "lstrip": false,
      "rstrip": false,
      "normalized": false,
      "special": true
    },
    {
      "id": 257,
      "content": "<placeholder_tok_252>",
      "single_word": false,
      "lstrip": false,
      "rstrip": false,
      "normalized": false,
      "special": true
    },
    {
      "id": 258,
      "content": "<placeholder_tok_253>",
      "single_word": false,
      "lstrip": false,
      "rstrip": false,
      "normalized": false,
      "special": true
    },
    {
      "id": 259,
      "content": "<placeholder_tok_254>",
      "single_word": false,
      "lstrip": false,
      "rstrip": false,
      "normalized": false,
      "special": true
    },
    {
      "id": 260,
      "content": "<placeholder_tok_255>",
      "single_word": false,
      "lstrip": false,
      "rstrip": false,
      "normalized": false,
      "special": true
    },
    {
      "id": 261,
      "content": "<0x00>",
      "single_word": false,
      "lstrip": false,
      "rstrip": false,
      "normalized": false,
      "special": true
    },
    {
      "id": 262,
      "content": "<0x01>",
      "single_word": false,
      "lstrip": false,
      "rstrip": false,
      "normalized": false,
      "special": true
    },
    {
      "id": 263,
      "content": "<0x02>",
      "single_word": false,
      "lstrip": false,
      "rstrip": false,
      "normalized": false,
      "special": true
    },
    {
      "id": 264,
      "content": "<0x03>",
      "single_word": false,
      "lstrip": false,
      "rstrip": false,
      "normalized": false,
      "special": true
    },
    {
      "id": 265,
      "content": "<0x04>",
      "single_word": false,
      "lstrip": false,
      "rstrip": false,
      "normalized": false,
      "special": true
    },
    {
      "id": 266,
      "content": "<0x05>",
      "single_word": false,
      "lstrip": false,
      "rstrip": false,
      "normalized": false,
      "special": true
    },
    {
      "id": 267,
      "content": "<0x06>",
      "single_word": false,
      "lstrip": false,
      "rstrip": false,
      "normalized": false,
      "special": true
    },
    {
      "id": 268,
      "content": "<0x07>",
      "single_word": false,
      "lstrip": false,
      "rstrip": false,
      "normalized": false,
      "special": true
    },
    {
      "id": 269,
      "content": "<0x08>",
      "single_word": false,
      "lstrip": false,
      "rstrip": false,
      "normalized": false,
      "special": true
    },
    {
      "id": 270,
      "content": "<0x09>",
      "single_word": false,
      "lstrip": false,
      "rstrip": false,
      "normalized": false,
      "special": true
    },
    {
      "id": 271,
      "content": "<0x0A>",
      "single_word": false,
      "lstrip": false,
      "rstrip": false,
      "normalized": false,
      "special": true
    },
    {
      "id": 272,
      "content": "<0x0B>",
      "single_word": false,
      "lstrip": false,
      "rstrip": false,
      "normalized": false,
      "special": true
    },
    {
      "id": 273,
      "content": "<0x0C>",
      "single_word": false,
      "lstrip": false,
      "rstrip": false,
      "normalized": false,
      "special": true
    },
    {
      "id": 274,
      "content": "<0x0D>",
      "single_word": false,
      "lstrip": false,
      "rstrip": false,
      "normalized": false,
      "special": true
    },
    {
      "id": 275,
      "content": "<0x0E>",
      "single_word": false,
      "lstrip": false,
      "rstrip": false,
      "normalized": false,
      "special": true
    },
    {
      "id": 276,
      "content": "<0x0F>",
      "single_word": false,
      "lstrip": false,
      "rstrip": false,
      "normalized": false,
      "special": true
    },
    {
      "id": 277,
      "content": "<0x10>",
      "single_word": false,
      "lstrip": false,
      "rstrip": false,
      "normalized": false,
      "special": true
    },
    {
      "id": 278,
      "content": "<0x11>",
      "single_word": false,
      "lstrip": false,
      "rstrip": false,
      "normalized": false,
      "special": true
    },
    {
      "id": 279,
      "content": "<0x12>",
      "single_word": false,
      "lstrip": false,
      "rstrip": false,
      "normalized": false,
      "special": true
    },
    {
      "id": 280,
      "content": "<0x13>",
      "single_word": false,
      "lstrip": false,
      "rstrip": false,
      "normalized": false,
      "special": true
    },
    {
      "id": 281,
      "content": "<0x14>",
      "single_word": false,
      "lstrip": false,
      "rstrip": false,
      "normalized": false,
      "special": true
    },
    {
      "id": 282,
      "content": "<0x15>",
      "single_word": false,
      "lstrip": false,
      "rstrip": false,
      "normalized": false,
      "special": true
    },
    {
      "id": 283,
      "content": "<0x16>",
      "single_word": false,
      "lstrip": false,
      "rstrip": false,
      "normalized": false,
      "special": true
    },
    {
      "id": 284,
      "content": "<0x17>",
      "single_word": false,
      "lstrip": false,
      "rstrip": false,
      "normalized": false,
      "special": true
    },
    {
      "id": 285,
      "content": "<0x18>",
      "single_word": false,
      "lstrip": false,
      "rstrip": false,
      "normalized": false,
      "special": true
    },
    {
      "id": 286,
      "content": "<0x19>",
      "single_word": false,
      "lstrip": false,
      "rstrip": false,
      "normalized": false,
      "special": true
    },
    {
      "id": 287,
      "content": "<0x1A>",
      "single_word": false,
      "lstrip": false,
      "rstrip": false,
      "normalized": false,
      "special": true
    },
    {
      "id": 288,
      "content": "<0x1B>",
      "single_word": false,
      "lstrip": false,
      "rstrip": false,
      "normalized": false,
      "special": true
    },
    {
      "id": 289,
      "content": "<0x1C>",
      "single_word": false,
      "lstrip": false,
      "rstrip": false,
      "normalized": false,
      "special": true
    },
    {
      "id": 290,
      "content": "<0x1D>",
      "single_word": false,
      "lstrip": false,
      "rstrip": false,
      "normalized": false,
      "special": true
    },
    {
      "id": 291,
      "content": "<0x1E>",
      "single_word": false,
      "lstrip": false,
      "rstrip": false,
      "normalized": false,
      "special": true
    },
    {
      "id": 292,
      "content": "<0x1F>",
      "single_word": false,
      "lstrip": false,
      "rstrip": false,
      "normalized": false,
      "special": true
    },
    {
      "id": 293,
      "content": "<0x20>",
      "single_word": false,
      "lstrip": false,
      "rstrip": false,
      "normalized": false,
      "special": true
    },
    {
      "id": 294,
      "content": "<0x21>",
      "single_word": false,
      "lstrip": false,
      "rstrip": false,
      "normalized": false,
      "special": true
    },
    {
      "id": 295,
      "content": "<0x22>",
      "single_word": false,
      "lstrip": false,
      "rstrip": false,
      "normalized": false,
      "special": true
    },
    {
      "id": 296,
      "content": "<0x23>",
      "single_word": false,
      "lstrip": false,
      "rstrip": false,
      "normalized": false,
      "special": true
    },
    {
      "id": 297,
      "content": "<0x24>",
      "single_word": false,
      "lstrip": false,
      "rstrip": false,
      "normalized": false,
      "special": true
    },
    {
      "id": 298,
      "content": "<0x25>",
      "single_word": false,
      "lstrip": false,
      "rstrip": false,
      "normalized": false,
      "special": true
    },
    {
      "id": 299,
      "content": "<0x26>",
      "single_word": false,
      "lstrip": false,
      "rstrip": false,
      "normalized": false,
      "special": true
    },
    {
      "id": 300,
      "content": "<0x27>",
      "single_word": false,
      "lstrip": false,
      "rstrip": false,
      "normalized": false,
      "special": true
    },
    {
      "id": 301,
      "content": "<0x28>",
      "single_word": false,
      "lstrip": false,
      "rstrip": false,
      "normalized": false,
      "special": true
    },
    {
      "id": 302,
      "content": "<0x29>",
      "single_word": false,
      "lstrip": false,
      "rstrip": false,
      "normalized": false,
      "special": true
    },
    {
      "id": 303,
      "content": "<0x2A>",
      "single_word": false,
      "lstrip": false,
      "rstrip": false,
      "normalized": false,
      "special": true
    },
    {
      "id": 304,
      "content": "<0x2B>",
      "single_word": false,
      "lstrip": false,
      "rstrip": false,
      "normalized": false,
      "special": true
    },
    {
      "id": 305,
      "content": "<0x2C>",
      "single_word": false,
      "lstrip": false,
      "rstrip": false,
      "normalized": false,
      "special": true
    },
    {
      "id": 306,
      "content": "<0x2D>",
      "single_word": false,
      "lstrip": false,
      "rstrip": false,
      "normalized": false,
      "special": true
    },
    {
      "id": 307,
      "content": "<0x2E>",
      "single_word": false,
      "lstrip": false,
      "rstrip": false,
      "normalized": false,
      "special": true
    },
    {
      "id": 308,
      "content": "<0x2F>",
      "single_word": false,
      "lstrip": false,
      "rstrip": false,
      "normalized": false,
      "special": true
    },
    {
      "id": 309,
      "content": "<0x30>",
      "single_word": false,
      "lstrip": false,
      "rstrip": false,
      "normalized": false,
      "special": true
    },
    {
      "id": 310,
      "content": "<0x31>",
      "single_word": false,
      "lstrip": false,
      "rstrip": false,
      "normalized": false,
      "special": true
    },
    {
      "id": 311,
      "content": "<0x32>",
      "single_word": false,
      "lstrip": false,
      "rstrip": false,
      "normalized": false,
      "special": true
    },
    {
      "id": 312,
      "content": "<0x33>",
      "single_word": false,
      "lstrip": false,
      "rstrip": false,
      "normalized": false,
      "special": true
    },
    {
      "id": 313,
      "content": "<0x34>",
      "single_word": false,
      "lstrip": false,
      "rstrip": false,
      "normalized": false,
      "special": true
    },
    {
      "id": 314,
      "content": "<0x35>",
      "single_word": false,
      "lstrip": false,
      "rstrip": false,
      "normalized": false,
      "special": true
    },
    {
      "id": 315,
      "content": "<0x36>",
      "single_word": false,
      "lstrip": false,
      "rstrip": false,
      "normalized": false,
      "special": true
    },
    {
      "id": 316,
      "content": "<0x37>",
      "single_word": false,
      "lstrip": false,
      "rstrip": false,
      "normalized": false,
      "special": true
    },
    {
      "id": 317,
      "content": "<0x38>",
      "single_word": false,
      "lstrip": false,
      "rstrip": false,
      "normalized": false,
      "special": true
    },
    {
      "id": 318,
      "content": "<0x39>",
      "single_word": false,
      "lstrip": false,
      "rstrip": false,
      "normalized": false,
      "special": true
    },
    {
      "id": 319,
      "content": "<0x3A>",
      "single_word": false,
      "lstrip": false,
      "rstrip": false,
      "normalized": false,
      "special": true
    },
    {
      "id": 320,
      "content": "<0x3B>",
      "single_word": false,
      "lstrip": false,
      "rstrip": false,
      "normalized": false,
      "special": true
    },
    {
      "id": 321,
      "content": "<0x3C>",
      "single_word": false,
      "lstrip": false,
      "rstrip": false,
      "normalized": false,
      "special": true
    },
    {
      "id": 322,
      "content": "<0x3D>",
      "single_word": false,
      "lstrip": false,
      "rstrip": false,
      "normalized": false,
      "special": true
    },
    {
      "id": 323,
      "content": "<0x3E>",
      "single_word": false,
      "lstrip": false,
      "rstrip": false,
      "normalized": false,
      "special": true
    },
    {
      "id": 324,
      "content": "<0x3F>",
      "single_word": false,
      "lstrip": false,
      "rstrip": false,
      "normalized": false,
      "special": true
    },
    {
      "id": 325,
      "content": "<0x40>",
      "single_word": false,
      "lstrip": false,
      "rstrip": false,
      "normalized": false,
      "special": true
    },
    {
      "id": 326,
      "content": "<0x41>",
      "single_word": false,
      "lstrip": false,
      "rstrip": false,
      "normalized": false,
      "special": true
    },
    {
      "id": 327,
      "content": "<0x42>",
      "single_word": false,
      "lstrip": false,
      "rstrip": false,
      "normalized": false,
      "special": true
    },
    {
      "id": 328,
      "content": "<0x43>",
      "single_word": false,
      "lstrip": false,
      "rstrip": false,
      "normalized": false,
      "special": true
    },
    {
      "id": 329,
      "content": "<0x44>",
      "single_word": false,
      "lstrip": false,
      "rstrip": false,
      "normalized": false,
      "special": true
    },
    {
      "id": 330,
      "content": "<0x45>",
      "single_word": false,
      "lstrip": false,
      "rstrip": false,
      "normalized": false,
      "special": true
    },
    {
      "id": 331,
      "content": "<0x46>",
      "single_word": false,
      "lstrip": false,
      "rstrip": false,
      "normalized": false,
      "special": true
    },
    {
      "id": 332,
      "content": "<0x47>",
      "single_word": false,
      "lstrip": false,
      "rstrip": false,
      "normalized": false,
      "special": true
    },
    {
      "id": 333,
      "content": "<0x48>",
      "single_word": false,
      "lstrip": false,
      "rstrip": false,
      "normalized": false,
      "special": true
    },
    {
      "id": 334,
      "content": "<0x49>",
      "single_word": false,
      "lstrip": false,
      "rstrip": false,
      "normalized": false,
      "special": true
    },
    {
      "id": 335,
      "content": "<0x4A>",
      "single_word": false,
      "lstrip": false,
      "rstrip": false,
      "normalized": false,
      "special": true
    },
    {
      "id": 336,
      "content": "<0x4B>",
      "single_word": false,
      "lstrip": false,
      "rstrip": false,
      "normalized": false,
      "special": true
    },
    {
      "id": 337,
      "content": "<0x4C>",
      "single_word": false,
      "lstrip": false,
      "rstrip": false,
      "normalized": false,
      "special": true
    },
    {
      "id": 338,
      "content": "<0x4D>",
      "single_word": false,
      "lstrip": false,
      "rstrip": false,
      "normalized": false,
      "special": true
    },
    {
      "id": 339,
      "content": "<0x4E>",
      "single_word": false,
      "lstrip": false,
      "rstrip": false,
      "normalized": false,
      "special": true
    },
    {
      "id": 340,
      "content": "<0x4F>",
      "single_word": false,
      "lstrip": false,
      "rstrip": false,
      "normalized": false,
      "special": true
    },
    {
      "id": 341,
      "content": "<0x50>",
      "single_word": false,
      "lstrip": false,
      "rstrip": false,
      "normalized": false,
      "special": true
    },
    {
      "id": 342,
      "content": "<0x51>",
      "single_word": false,
      "lstrip": false,
      "rstrip": false,
      "normalized": false,
      "special": true
    },
    {
      "id": 343,
      "content": "<0x52>",
      "single_word": false,
      "lstrip": false,
      "rstrip": false,
      "normalized": false,
      "special": true
    },
    {
      "id": 344,
      "content": "<0x53>",
      "single_word": false,
      "lstrip": false,
      "rstrip": false,
      "normalized": false,
      "special": true
    },
    {
      "id": 345,
      "content": "<0x54>",
      "single_word": false,
      "lstrip": false,
      "rstrip": false,
      "normalized": false,
      "special": true
    },
    {
      "id": 346,
      "content": "<0x55>",
      "single_word": false,
      "lstrip": false,
      "rstrip": false,
      "normalized": false,
      "special": true
    },
    {
      "id": 347,
      "content": "<0x56>",
      "single_word": false,
      "lstrip": false,
      "rstrip": false,
      "normalized": false,
      "special": true
    },
    {
      "id": 348,
      "content": "<0x57>",
      "single_word": false,
      "lstrip": false,
      "rstrip": false,
      "normalized": false,
      "special": true
    },
    {
      "id": 349,
      "content": "<0x58>",
      "single_word": false,
      "lstrip": false,
      "rstrip": false,
      "normalized": false,
      "special": true
    },
    {
      "id": 350,
      "content": "<0x59>",
      "single_word": false,
      "lstrip": false,
      "rstrip": false,
      "normalized": false,
      "special": true
    },
    {
      "id": 351,
      "content": "<0x5A>",
      "single_word": false,
      "lstrip": false,
      "rstrip": false,
      "normalized": false,
      "special": true
    },
    {
      "id": 352,
      "content": "<0x5B>",
      "single_word": false,
      "lstrip": false,
      "rstrip": false,
      "normalized": false,
      "special": true
    },
    {
      "id": 353,
      "content": "<0x5C>",
      "single_word": false,
      "lstrip": false,
      "rstrip": false,
      "normalized": false,
      "special": true
    },
    {
      "id": 354,
      "content": "<0x5D>",
      "single_word": false,
      "lstrip": false,
      "rstrip": false,
      "normalized": false,
      "special": true
    },
    {
      "id": 355,
      "content": "<0x5E>",
      "single_word": false,
      "lstrip": false,
      "rstrip": false,
      "normalized": false,
      "special": true
    },
    {
      "id": 356,
      "content": "<0x5F>",
      "single_word": false,
      "lstrip": false,
      "rstrip": false,
      "normalized": false,
      "special": true
    },
    {
      "id": 357,
      "content": "<0x60>",
      "single_word": false,
      "lstrip": false,
      "rstrip": false,
      "normalized": false,
      "special": true
    },
    {
      "id": 358,
      "content": "<0x61>",
      "single_word": false,
      "lstrip": false,
      "rstrip": false,
      "normalized": false,
      "special": true
    },
    {
      "id": 359,
      "content": "<0x62>",
      "single_word": false,
      "lstrip": false,
      "rstrip": false,
      "normalized": false,
      "special": true
    },
    {
      "id": 360,
      "content": "<0x63>",
      "single_word": false,
      "lstrip": false,
      "rstrip": false,
      "normalized": false,
      "special": true
    },
    {
      "id": 361,
      "content": "<0x64>",
      "single_word": false,
      "lstrip": false,
      "rstrip": false,
      "normalized": false,
      "special": true
    },
    {
      "id": 362,
      "content": "<0x65>",
      "single_word": false,
      "lstrip": false,
      "rstrip": false,
      "normalized": false,
      "special": true
    },
    {
      "id": 363,
      "content": "<0x66>",
      "single_word": false,
      "lstrip": false,
      "rstrip": false,
      "normalized": false,
      "special": true
    },
    {
      "id": 364,
      "content": "<0x67>",
      "single_word": false,
      "lstrip": false,
      "rstrip": false,
      "normalized": false,
      "special": true
    },
    {
      "id": 365,
      "content": "<0x68>",
      "single_word": false,
      "lstrip": false,
      "rstrip": false,
      "normalized": false,
      "special": true
    },
    {
      "id": 366,
      "content": "<0x69>",
      "single_word": false,
      "lstrip": false,
      "rstrip": false,
      "normalized": false,
      "special": true
    },
    {
      "id": 367,
      "content": "<0x6A>",
      "single_word": false,
      "lstrip": false,
      "rstrip": false,
      "normalized": false,
      "special": true
    },
    {
      "id": 368,
      "content": "<0x6B>",
      "single_word": false,
      "lstrip": false,
      "rstrip": false,
      "normalized": false,
      "special": true
    },
    {
      "id": 369,
      "content": "<0x6C>",
      "single_word": false,
      "lstrip": false,
      "rstrip": false,
      "normalized": false,
      "special": true
    },
    {
      "id": 370,
      "content": "<0x6D>",
      "single_word": false,
      "lstrip": false,
      "rstrip": false,
      "normalized": false,
      "special": true
    },
    {
      "id": 371,
      "content": "<0x6E>",
      "single_word": false,
      "lstrip": false,
      "rstrip": false,
      "normalized": false,
      "special": true
    },
    {
      "id": 372,
      "content": "<0x6F>",
      "single_word": false,
      "lstrip": false,
      "rstrip": false,
      "normalized": false,
      "special": true
    },
    {
      "id": 373,
      "content": "<0x70>",
      "single_word": false,
      "lstrip": false,
      "rstrip": false,
      "normalized": false,
      "special": true
    },
    {
      "id": 374,
      "content": "<0x71>",
      "single_word": false,
      "lstrip": false,
      "rstrip": false,
      "normalized": false,
      "special": true
    },
    {
      "id": 375,
      "content": "<0x72>",
      "single_word": false,
      "lstrip": false,
      "rstrip": false,
      "normalized": false,
      "special": true
    },
    {
      "id": 376,
      "content": "<0x73>",
      "single_word": false,
      "lstrip": false,
      "rstrip": false,
      "normalized": false,
      "special": true
    },
    {
      "id": 377,
      "content": "<0x74>",
      "single_word": false,
      "lstrip": false,
      "rstrip": false,
      "normalized": false,
      "special": true
    },
    {
      "id": 378,
      "content": "<0x75>",
      "single_word": false,
      "lstrip": false,
      "rstrip": false,
      "normalized": false,
      "special": true
    },
    {
      "id": 379,
      "content": "<0x76>",
      "single_word": false,
      "lstrip": false,
      "rstrip": false,
      "normalized": false,
      "special": true
    },
    {
      "id": 380,
      "content": "<0x77>",
      "single_word": false,
      "lstrip": false,
      "rstrip": false,
      "normalized": false,
      "special": true
    },
    {
      "id": 381,
      "content": "<0x78>",
      "single_word": false,
      "lstrip": false,
      "rstrip": false,
      "normalized": false,
      "special": true
    },
    {
      "id": 382,
      "content": "<0x79>",
      "single_word": false,
      "lstrip": false,
      "rstrip": false,
      "normalized": false,
      "special": true
    },
    {
      "id": 383,
      "content": "<0x7A>",
      "single_word": false,
      "lstrip": false,
      "rstrip": false,
      "normalized": false,
      "special": true
    },
    {
      "id": 384,
      "content": "<0x7B>",
      "single_word": false,
      "lstrip": false,
      "rstrip": false,
      "normalized": false,
      "special": true
    },
    {
      "id": 385,
      "content": "<0x7C>",
      "single_word": false,
      "lstrip": false,
      "rstrip": false,
      "normalized": false,
      "special": true
    },
    {
      "id": 386,
      "content": "<0x7D>",
      "single_word": false,
      "lstrip": false,
      "rstrip": false,
      "normalized": false,
      "special": true
    },
    {
      "id": 387,
      "content": "<0x7E>",
      "single_word": false,
      "lstrip": false,
      "rstrip": false,
      "normalized": false,
      "special": true
    },
    {
      "id": 388,
      "content": "<0x7F>",
      "single_word": false,
      "lstrip": false,
      "rstrip": false,
      "normalized": false,
      "special": true
    },
    {
      "id": 389,
      "content": "<0x80>",
      "single_word": false,
      "lstrip": false,
      "rstrip": false,
      "normalized": false,
      "special": true
    },
    {
      "id": 390,
      "content": "<0x81>",
      "single_word": false,
      "lstrip": false,
      "rstrip": false,
      "normalized": false,
      "special": true
    },
    {
      "id": 391,
      "content": "<0x82>",
      "single_word": false,
      "lstrip": false,
      "rstrip": false,
      "normalized": false,
      "special": true
    },
    {
      "id": 392,
      "content": "<0x83>",
      "single_word": false,
      "lstrip": false,
      "rstrip": false,
      "normalized": false,
      "special": true
    },
    {
      "id": 393,
      "content": "<0x84>",
      "single_word": false,
      "lstrip": false,
      "rstrip": false,
      "normalized": false,
      "special": true
    },
    {
      "id": 394,
      "content": "<0x85>",
      "single_word": false,
      "lstrip": false,
      "rstrip": false,
      "normalized": false,
      "special": true
    },
    {
      "id": 395,
      "content": "<0x86>",
      "single_word": false,
      "lstrip": false,
      "rstrip": false,
      "normalized": false,
      "special": true
    },
    {
      "id": 396,
      "content": "<0x87>",
      "single_word": false,
      "lstrip": false,
      "rstrip": false,
      "normalized": false,
      "special": true
    },
    {
      "id": 397,
      "content": "<0x88>",
      "single_word": false,
      "lstrip": false,
      "rstrip": false,
      "normalized": false,
      "special": true
    },
    {
      "id": 398,
      "content": "<0x89>",
      "single_word": false,
      "lstrip": false,
      "rstrip": false,
      "normalized": false,
      "special": true
    },
    {
      "id": 399,
      "content": "<0x8A>",
      "single_word": false,
      "lstrip": false,
      "rstrip": false,
      "normalized": false,
      "special": true
    },
    {
      "id": 400,
      "content": "<0x8B>",
      "single_word": false,
      "lstrip": false,
      "rstrip": false,
      "normalized": false,
      "special": true
    },
    {
      "id": 401,
      "content": "<0x8C>",
      "single_word": false,
      "lstrip": false,
      "rstrip": false,
      "normalized": false,
      "special": true
    },
    {
      "id": 402,
      "content": "<0x8D>",
      "single_word": false,
      "lstrip": false,
      "rstrip": false,
      "normalized": false,
      "special": true
    },
    {
      "id": 403,
      "content": "<0x8E>",
      "single_word": false,
      "lstrip": false,
      "rstrip": false,
      "normalized": false,
      "special": true
    },
    {
      "id": 404,
      "content": "<0x8F>",
      "single_word": false,
      "lstrip": false,
      "rstrip": false,
      "normalized": false,
      "special": true
    },
    {
      "id": 405,
      "content": "<0x90>",
      "single_word": false,
      "lstrip": false,
      "rstrip": false,
      "normalized": false,
      "special": true
    },
    {
      "id": 406,
      "content": "<0x91>",
      "single_word": false,
      "lstrip": false,
      "rstrip": false,
      "normalized": false,
      "special": true
    },
    {
      "id": 407,
      "content": "<0x92>",
      "single_word": false,
      "lstrip": false,
      "rstrip": false,
      "normalized": false,
      "special": true
    },
    {
      "id": 408,
      "content": "<0x93>",
      "single_word": false,
      "lstrip": false,
      "rstrip": false,
      "normalized": false,
      "special": true
    },
    {
      "id": 409,
      "content": "<0x94>",
      "single_word": false,
      "lstrip": false,
      "rstrip": false,
      "normalized": false,
      "special": true
    },
    {
      "id": 410,
      "content": "<0x95>",
      "single_word": false,
      "lstrip": false,
      "rstrip": false,
      "normalized": false,
      "special": true
    },
    {
      "id": 411,
      "content": "<0x96>",
      "single_word": false,
      "lstrip": false,
      "rstrip": false,
      "normalized": false,
      "special": true
    },
    {
      "id": 412,
      "content": "<0x97>",
      "single_word": false,
      "lstrip": false,
      "rstrip": false,
      "normalized": false,
      "special": true
    },
    {
      "id": 413,
      "content": "<0x98>",
      "single_word": false,
      "lstrip": false,
      "rstrip": false,
      "normalized": false,
      "special": true
    },
    {
      "id": 414,
      "content": "<0x99>",
      "single_word": false,
      "lstrip": false,
      "rstrip": false,
      "normalized": false,
      "special": true
    },
    {
      "id": 415,
      "content": "<0x9A>",
      "single_word": false,
      "lstrip": false,
      "rstrip": false,
      "normalized": false,
      "special": true
    },
    {
      "id": 416,
      "content": "<0x9B>",
      "single_word": false,
      "lstrip": false,
      "rstrip": false,
      "normalized": false,
      "special": true
    },
    {
      "id": 417,
      "content": "<0x9C>",
      "single_word": false,
      "lstrip": false,
      "rstrip": false,
      "normalized": false,
      "special": true
    },
    {
      "id": 418,
      "content": "<0x9D>",
      "single_word": false,
      "lstrip": false,
      "rstrip": false,
      "normalized": false,
      "special": true
    },
    {
      "id": 419,
      "content": "<0x9E>",
      "single_word": false,
      "lstrip": false,
      "rstrip": false,
      "normalized": false,
      "special": true
    },
    {
      "id": 420,
      "content": "<0x9F>",
      "single_word": false,
      "lstrip": false,
      "rstrip": false,
      "normalized": false,
      "special": true
    },
    {
      "id": 421,
      "content": "<0xA0>",
      "single_word": false,
      "lstrip": false,
      "rstrip": false,
      "normalized": false,
      "special": true
    },
    {
      "id": 422,
      "content": "<0xA1>",
      "single_word": false,
      "lstrip": false,
      "rstrip": false,
      "normalized": false,
      "special": true
    },
    {
      "id": 423,
      "content": "<0xA2>",
      "single_word": false,
      "lstrip": false,
      "rstrip": false,
      "normalized": false,
      "special": true
    },
    {
      "id": 424,
      "content": "<0xA3>",
      "single_word": false,
      "lstrip": false,
      "rstrip": false,
      "normalized": false,
      "special": true
    },
    {
      "id": 425,
      "content": "<0xA4>",
      "single_word": false,
      "lstrip": false,
      "rstrip": false,
      "normalized": false,
      "special": true
    },
    {
      "id": 426,
      "content": "<0xA5>",
      "single_word": false,
      "lstrip": false,
      "rstrip": false,
      "normalized": false,
      "special": true
    },
    {
      "id": 427,
      "content": "<0xA6>",
      "single_word": false,
      "lstrip": false,
      "rstrip": false,
      "normalized": false,
      "special": true
    },
    {
      "id": 428,
      "content": "<0xA7>",
      "single_word": false,
      "lstrip": false,
      "rstrip": false,
      "normalized": false,
      "special": true
    },
    {
      "id": 429,
      "content": "<0xA8>",
      "single_word": false,
      "lstrip": false,
      "rstrip": false,
      "normalized": false,
      "special": true
    },
    {
      "id": 430,
      "content": "<0xA9>",
      "single_word": false,
      "lstrip": false,
      "rstrip": false,
      "normalized": false,
      "special": true
    },
    {
      "id": 431,
      "content": "<0xAA>",
      "single_word": false,
      "lstrip": false,
      "rstrip": false,
      "normalized": false,
      "special": true
    },
    {
      "id": 432,
      "content": "<0xAB>",
      "single_word": false,
      "lstrip": false,
      "rstrip": false,
      "normalized": false,
      "special": true
    },
    {
      "id": 433,
      "content": "<0xAC>",
      "single_word": false,
      "lstrip": false,
      "rstrip": false,
      "normalized": false,
      "special": true
    },
    {
      "id": 434,
      "content": "<0xAD>",
      "single_word": false,
      "lstrip": false,
      "rstrip": false,
      "normalized": false,
      "special": true
    },
    {
      "id": 435,
      "content": "<0xAE>",
      "single_word": false,
      "lstrip": false,
      "rstrip": false,
      "normalized": false,
      "special": true
    },
    {
      "id": 436,
      "content": "<0xAF>",
      "single_word": false,
      "lstrip": false,
      "rstrip": false,
      "normalized": false,
      "special": true
    },
    {
      "id": 437,
      "content": "<0xB0>",
      "single_word": false,
      "lstrip": false,
      "rstrip": false,
      "normalized": false,
      "special": true
    },
    {
      "id": 438,
      "content": "<0xB1>",
      "single_word": false,
      "lstrip": false,
      "rstrip": false,
      "normalized": false,
      "special": true
    },
    {
      "id": 439,
      "content": "<0xB2>",
      "single_word": false,
      "lstrip": false,
      "rstrip": false,
      "normalized": false,
      "special": true
    },
    {
      "id": 440,
      "content": "<0xB3>",
      "single_word": false,
      "lstrip": false,
      "rstrip": false,
      "normalized": false,
      "special": true
    },
    {
      "id": 441,
      "content": "<0xB4>",
      "single_word": false,
      "lstrip": false,
      "rstrip": false,
      "normalized": false,
      "special": true
    },
    {
      "id": 442,
      "content": "<0xB5>",
      "single_word": false,
      "lstrip": false,
      "rstrip": false,
      "normalized": false,
      "special": true
    },
    {
      "id": 443,
      "content": "<0xB6>",
      "single_word": false,
      "lstrip": false,
      "rstrip": false,
      "normalized": false,
      "special": true
    },
    {
      "id": 444,
      "content": "<0xB7>",
      "single_word": false,
      "lstrip": false,
      "rstrip": false,
      "normalized": false,
      "special": true
    },
    {
      "id": 445,
      "content": "<0xB8>",
      "single_word": false,
      "lstrip": false,
      "rstrip": false,
      "normalized": false,
      "special": true
    },
    {
      "id": 446,
      "content": "<0xB9>",
      "single_word": false,
      "lstrip": false,
      "rstrip": false,
      "normalized": false,
      "special": true
    },
    {
      "id": 447,
      "content": "<0xBA>",
      "single_word": false,
      "lstrip": false,
      "rstrip": false,
      "normalized": false,
      "special": true
    },
    {
      "id": 448,
      "content": "<0xBB>",
      "single_word": false,
      "lstrip": false,
      "rstrip": false,
      "normalized": false,
      "special": true
    },
    {
      "id": 449,
      "content": "<0xBC>",
      "single_word": false,
      "lstrip": false,
      "rstrip": false,
      "normalized": false,
      "special": true
    },
    {
      "id": 450,
      "content": "<0xBD>",
      "single_word": false,
      "lstrip": false,
      "rstrip": false,
      "normalized": false,
      "special": true
    },
    {
      "id": 451,
      "content": "<0xBE>",
      "single_word": false,
      "lstrip": false,
      "rstrip": false,
      "normalized": false,
      "special": true
    },
    {
      "id": 452,
      "content": "<0xBF>",
      "single_word": false,
      "lstrip": false,
      "rstrip": false,
      "normalized": false,
      "special": true
    },
    {
      "id": 453,
      "content": "<0xC0>",
      "single_word": false,
      "lstrip": false,
      "rstrip": false,
      "normalized": false,
      "special": true
    },
    {
      "id": 454,
      "content": "<0xC1>",
      "single_word": false,
      "lstrip": false,
      "rstrip": false,
      "normalized": false,
      "special": true
    },
    {
      "id": 455,
      "content": "<0xC2>",
      "single_word": false,
      "lstrip": false,
      "rstrip": false,
      "normalized": false,
      "special": true
    },
    {
      "id": 456,
      "content": "<0xC3>",
      "single_word": false,
      "lstrip": false,
      "rstrip": false,
      "normalized": false,
      "special": true
    },
    {
      "id": 457,
      "content": "<0xC4>",
      "single_word": false,
      "lstrip": false,
      "rstrip": false,
      "normalized": false,
      "special": true
    },
    {
      "id": 458,
      "content": "<0xC5>",
      "single_word": false,
      "lstrip": false,
      "rstrip": false,
      "normalized": false,
      "special": true
    },
    {
      "id": 459,
      "content": "<0xC6>",
      "single_word": false,
      "lstrip": false,
      "rstrip": false,
      "normalized": false,
      "special": true
    },
    {
      "id": 460,
      "content": "<0xC7>",
      "single_word": false,
      "lstrip": false,
      "rstrip": false,
      "normalized": false,
      "special": true
    },
    {
      "id": 461,
      "content": "<0xC8>",
      "single_word": false,
      "lstrip": false,
      "rstrip": false,
      "normalized": false,
      "special": true
    },
    {
      "id": 462,
      "content": "<0xC9>",
      "single_word": false,
      "lstrip": false,
      "rstrip": false,
      "normalized": false,
      "special": true
    },
    {
      "id": 463,
      "content": "<0xCA>",
      "single_word": false,
      "lstrip": false,
      "rstrip": false,
      "normalized": false,
      "special": true
    },
    {
      "id": 464,
      "content": "<0xCB>",
      "single_word": false,
      "lstrip": false,
      "rstrip": false,
      "normalized": false,
      "special": true
    },
    {
      "id": 465,
      "content": "<0xCC>",
      "single_word": false,
      "lstrip": false,
      "rstrip": false,
      "normalized": false,
      "special": true
    },
    {
      "id": 466,
      "content": "<0xCD>",
      "single_word": false,
      "lstrip": false,
      "rstrip": false,
      "normalized": false,
      "special": true
    },
    {
      "id": 467,
      "content": "<0xCE>",
      "single_word": false,
      "lstrip": false,
      "rstrip": false,
      "normalized": false,
      "special": true
    },
    {
      "id": 468,
      "content": "<0xCF>",
      "single_word": false,
      "lstrip": false,
      "rstrip": false,
      "normalized": false,
      "special": true
    },
    {
      "id": 469,
      "content": "<0xD0>",
      "single_word": false,
      "lstrip": false,
      "rstrip": false,
      "normalized": false,
      "special": true
    },
    {
      "id": 470,
      "content": "<0xD1>",
      "single_word": false,
      "lstrip": false,
      "rstrip": false,
      "normalized": false,
      "special": true
    },
    {
      "id": 471,
      "content": "<0xD2>",
      "single_word": false,
      "lstrip": false,
      "rstrip": false,
      "normalized": false,
      "special": true
    },
    {
      "id": 472,
      "content": "<0xD3>",
      "single_word": false,
      "lstrip": false,
      "rstrip": false,
      "normalized": false,
      "special": true
    },
    {
      "id": 473,
      "content": "<0xD4>",
      "single_word": false,
      "lstrip": false,
      "rstrip": false,
      "normalized": false,
      "special": true
    },
    {
      "id": 474,
      "content": "<0xD5>",
      "single_word": false,
      "lstrip": false,
      "rstrip": false,
      "normalized": false,
      "special": true
    },
    {
      "id": 475,
      "content": "<0xD6>",
      "single_word": false,
      "lstrip": false,
      "rstrip": false,
      "normalized": false,
      "special": true
    },
    {
      "id": 476,
      "content": "<0xD7>",
      "single_word": false,
      "lstrip": false,
      "rstrip": false,
      "normalized": false,
      "special": true
    },
    {
      "id": 477,
      "content": "<0xD8>",
      "single_word": false,
      "lstrip": false,
      "rstrip": false,
      "normalized": false,
      "special": true
    },
    {
      "id": 478,
      "content": "<0xD9>",
      "single_word": false,
      "lstrip": false,
      "rstrip": false,
      "normalized": false,
      "special": true
    },
    {
      "id": 479,
      "content": "<0xDA>",
      "single_word": false,
      "lstrip": false,
      "rstrip": false,
      "normalized": false,
      "special": true
    },
    {
      "id": 480,
      "content": "<0xDB>",
      "single_word": false,
      "lstrip": false,
      "rstrip": false,
      "normalized": false,
      "special": true
    },
    {
      "id": 481,
      "content": "<0xDC>",
      "single_word": false,
      "lstrip": false,
      "rstrip": false,
      "normalized": false,
      "special": true
    },
    {
      "id": 482,
      "content": "<0xDD>",
      "single_word": false,
      "lstrip": false,
      "rstrip": false,
      "normalized": false,
      "special": true
    },
    {
      "id": 483,
      "content": "<0xDE>",
      "single_word": false,
      "lstrip": false,
      "rstrip": false,
      "normalized": false,
      "special": true
    },
    {
      "id": 484,
      "content": "<0xDF>",
      "single_word": false,
      "lstrip": false,
      "rstrip": false,
      "normalized": false,
      "special": true
    },
    {
      "id": 485,
      "content": "<0xE0>",
      "single_word": false,
      "lstrip": false,
      "rstrip": false,
      "normalized": false,
      "special": true
    },
    {
      "id": 486,
      "content": "<0xE1>",
      "single_word": false,
      "lstrip": false,
      "rstrip": false,
      "normalized": false,
      "special": true
    },
    {
      "id": 487,
      "content": "<0xE2>",
      "single_word": false,
      "lstrip": false,
      "rstrip": false,
      "normalized": false,
      "special": true
    },
    {
      "id": 488,
      "content": "<0xE3>",
      "single_word": false,
      "lstrip": false,
      "rstrip": false,
      "normalized": false,
      "special": true
    },
    {
      "id": 489,
      "content": "<0xE4>",
      "single_word": false,
      "lstrip": false,
      "rstrip": false,
      "normalized": false,
      "special": true
    },
    {
      "id": 490,
      "content": "<0xE5>",
      "single_word": false,
      "lstrip": false,
      "rstrip": false,
      "normalized": false,
      "special": true
    },
    {
      "id": 491,
      "content": "<0xE6>",
      "single_word": false,
      "lstrip": false,
      "rstrip": false,
      "normalized": false,
      "special": true
    },
    {
      "id": 492,
      "content": "<0xE7>",
      "single_word": false,
      "lstrip": false,
      "rstrip": false,
      "normalized": false,
      "special": true
    },
    {
      "id": 493,
      "content": "<0xE8>",
      "single_word": false,
      "lstrip": false,
      "rstrip": false,
      "normalized": false,
      "special": true
    },
    {
      "id": 494,
      "content": "<0xE9>",
      "single_word": false,
      "lstrip": false,
      "rstrip": false,
      "normalized": false,
      "special": true
    },
    {
      "id": 495,
      "content": "<0xEA>",
      "single_word": false,
      "lstrip": false,
      "rstrip": false,
      "normalized": false,
      "special": true
    },
    {
      "id": 496,
      "content": "<0xEB>",
      "single_word": false,
      "lstrip": false,
      "rstrip": false,
      "normalized": false,
      "special": true
    },
    {
      "id": 497,
      "content": "<0xEC>",
      "single_word": false,
      "lstrip": false,
      "rstrip": false,
      "normalized": false,
      "special": true
    },
    {
      "id": 498,
      "content": "<0xED>",
      "single_word": false,
      "lstrip": false,
      "rstrip": false,
      "normalized": false,
      "special": true
    },
    {
      "id": 499,
      "content": "<0xEE>",
      "single_word": false,
      "lstrip": false,
      "rstrip": false,
      "normalized": false,
      "special": true
    },
    {
      "id": 500,
      "content": "<0xEF>",
      "single_word": false,
      "lstrip": false,
      "rstrip": false,
      "normalized": false,
      "special": true
    },
    {
      "id": 501,
      "content": "<0xF0>",
      "single_word": false,
      "lstrip": false,
      "rstrip": false,
      "normalized": false,
      "special": true
    },
    {
      "id": 502,
      "content": "<0xF1>",
      "single_word": false,
      "lstrip": false,
      "rstrip": false,
      "normalized": false,
      "special": true
    },
    {
      "id": 503,
      "content": "<0xF2>",
      "single_word": false,
      "lstrip": false,
      "rstrip": false,
      "normalized": false,
      "special": true
    },
    {
      "id": 504,
      "content": "<0xF3>",
      "single_word": false,
      "lstrip": false,
      "rstrip": false,
      "normalized": false,
      "special": true
    },
    {
      "id": 505,
      "content": "<0xF4>",
      "single_word": false,
      "lstrip": false,
      "rstrip": false,
      "normalized": false,
      "special": true
    },
    {
      "id": 506,
      "content": "<0xF5>",
      "single_word": false,
      "lstrip": false,
      "rstrip": false,
      "normalized": false,
      "special": true
    },
    {
      "id": 507,
      "content": "<0xF6>",
      "single_word": false,
      "lstrip": false,
      "rstrip": false,
      "normalized": false,
      "special": true
    },
    {
      "id": 508,
      "content": "<0xF7>",
      "single_word": false,
      "lstrip": false,
      "rstrip": false,
      "normalized": false,
      "special": true
    },
    {
      "id": 509,
      "content": "<0xF8>",
      "single_word": false,
      "lstrip": false,
      "rstrip": false,
      "normalized": false,
      "special": true
    },
    {
      "id": 510,
      "content": "<0xF9>",
      "single_word": false,
      "lstrip": false,
      "rstrip": false,
      "normalized": false,
      "special": true
    },
    {
      "id": 511,
      "content": "<0xFA>",
      "single_word": false,
      "lstrip": false,
      "rstrip": false,
      "normalized": false,
      "special": true
    },
    {
      "id": 512,
      "content": "<0xFB>",
      "single_word": false,
      "lstrip": false,
      "rstrip": false,
      "normalized": false,
      "special": true
    },
    {
      "id": 513,
      "content": "<0xFC>",
      "single_word": false,
      "lstrip": false,
      "rstrip": false,
      "normalized": false,
      "special": true
    },
    {
      "id": 514,
      "content": "<0xFD>",
      "single_word": false,
      "lstrip": false,
      "rstrip": false,
      "normalized": false,
      "special": true
    },
    {
      "id": 515,
      "content": "<0xFE>",
      "single_word": false,
      "lstrip": false,
      "rstrip": false,
      "normalized": false,
      "special": true
    },
    {
      "id": 516,
      "content": "<0xFF>",
      "single_word": false,
      "lstrip": false,
      "rstrip": false,
      "normalized": false,
      "special": true
    }
  ],
  "normalizer": {
    "type": "Sequence",
    "normalizers": [
      {
        "type": "NFKC"
      }
    ]
  },
  "pre_tokenizer": {
    "type": "Sequence",
    "pretokenizers": [
      {
        "type": "ByteLevel",
        "add_prefix_space": true,
        "trim_offsets": true,
        "use_regex": true
      },
      {
        "type": "Digits",
        "individual_digits": true
      }
    ]
  },
  "post_processor": null,
  "decoder": {
    "type": "ByteLevel",
    "add_prefix_space": true,
    "trim_offsets": true,
    "use_regex": true
  },
  "model": {
    "type": "BPE",
    "dropout": null,
    "unk_token": "<unk>",
    "continuing_subword_prefix": null,
    "end_of_word_suffix": null,
    "fuse_unk": false,
    "byte_fallback": true,
    "vocab": {
      "<unk>": 0,
      "<s>": 1,
      "</s>": 2,
      "<pad>": 3,
      "<eod>": 4,
      "<placeholder_tok_0>": 5,
      "<placeholder_tok_1>": 6,
      "<placeholder_tok_2>": 7,
      "<placeholder_tok_3>": 8,
      "<placeholder_tok_4>": 9,
      "<placeholder_tok_5>": 10,
      "<placeholder_tok_6>": 11,
      "<placeholder_tok_7>": 12,
      "<placeholder_tok_8>": 13,
      "<placeholder_tok_9>": 14,
      "<placeholder_tok_10>": 15,
      "<placeholder_tok_11>": 16,
      "<placeholder_tok_12>": 17,
      "<placeholder_tok_13>": 18,
      "<placeholder_tok_14>": 19,
      "<placeholder_tok_15>": 20,
      "<placeholder_tok_16>": 21,
      "<placeholder_tok_17>": 22,
      "<placeholder_tok_18>": 23,
      "<placeholder_tok_19>": 24,
      "<placeholder_tok_20>": 25,
      "<placeholder_tok_21>": 26,
      "<placeholder_tok_22>": 27,
      "<placeholder_tok_23>": 28,
      "<placeholder_tok_24>": 29,
      "<placeholder_tok_25>": 30,
      "<placeholder_tok_26>": 31,
      "<placeholder_tok_27>": 32,
      "<placeholder_tok_28>": 33,
      "<placeholder_tok_29>": 34,
      "<placeholder_tok_30>": 35,
      "<placeholder_tok_31>": 36,
      "<placeholder_tok_32>": 37,
      "<placeholder_tok_33>": 38,
      "<placeholder_tok_34>": 39,
      "<placeholder_tok_35>": 40,
      "<placeholder_tok_36>": 41,
      "<placeholder_tok_37>": 42,
      "<placeholder_tok_38>": 43,
      "<placeholder_tok_39>": 44,
      "<placeholder_tok_40>": 45,
      "<placeholder_tok_41>": 46,
      "<placeholder_tok_42>": 47,
      "<placeholder_tok_43>": 48,
      "<placeholder_tok_44>": 49,
      "<placeholder_tok_45>": 50,
      "<placeholder_tok_46>": 51,
      "<placeholder_tok_47>": 52,
      "<placeholder_tok_48>": 53,
      "<placeholder_tok_49>": 54,
      "<placeholder_tok_50>": 55,
      "<placeholder_tok_51>": 56,
      "<placeholder_tok_52>": 57,
      "<placeholder_tok_53>": 58,
      "<placeholder_tok_54>": 59,
      "<placeholder_tok_55>": 60,
      "<placeholder_tok_56>": 61,
      "<placeholder_tok_57>": 62,
      "<placeholder_tok_58>": 63,
      "<placeholder_tok_59>": 64,
      "<placeholder_tok_60>": 65,
      "<placeholder_tok_61>": 66,
      "<placeholder_tok_62>": 67,
      "<placeholder_tok_63>": 68,
      "<placeholder_tok_64>": 69,
      "<placeholder_tok_65>": 70,
      "<placeholder_tok_66>": 71,
      "<placeholder_tok_67>": 72,
      "<placeholder_tok_68>": 73,
      "<placeholder_tok_69>": 74,
      "<placeholder_tok_70>": 75,
      "<placeholder_tok_71>": 76,
      "<placeholder_tok_72>": 77,
      "<placeholder_tok_73>": 78,
      "<placeholder_tok_74>": 79,
      "<placeholder_tok_75>": 80,
      "<placeholder_tok_76>": 81,
      "<placeholder_tok_77>": 82,
      "<placeholder_tok_78>": 83,
      "<placeholder_tok_79>": 84,
      "<placeholder_tok_80>": 85,
      "<placeholder_tok_81>": 86,
      "<placeholder_tok_82>": 87,
      "<placeholder_tok_83>": 88,
      "<placeholder_tok_84>": 89,
      "<placeholder_tok_85>": 90,
      "<placeholder_tok_86>": 91,
      "<placeholder_tok_87>": 92,
      "<placeholder_tok_88>": 93,
      "<placeholder_tok_89>": 94,
      "<placeholder_tok_90>": 95,
      "<placeholder_tok_91>": 96,
      "<placeholder_tok_92>": 97,
      "<placeholder_tok_93>": 98,
      "<placeholder_tok_94>": 99,
      "<placeholder_tok_95>": 100,
      "<placeholder_tok_96>": 101,
      "<placeholder_tok_97>": 102,
      "<placeholder_tok_98>": 103,
      "<placeholder_tok_99>": 104,
      "<placeholder_tok_100>": 105,
      "<placeholder_tok_101>": 106,
      "<placeholder_tok_102>": 107,
      "<placeholder_tok_103>": 108,
      "<placeholder_tok_104>": 109,
      "<placeholder_tok_105>": 110,
      "<placeholder_tok_106>": 111,
      "<placeholder_tok_107>": 112,
      "<placeholder_tok_108>": 113,
      "<placeholder_tok_109>": 114,
      "<placeholder_tok_110>": 115,
      "<placeholder_tok_111>": 116,
      "<placeholder_tok_112>": 117,
      "<placeholder_tok_113>": 118,
      "<placeholder_tok_114>": 119,
      "<placeholder_tok_115>": 120,
      "<placeholder_tok_116>": 121,
      "<placeholder_tok_117>": 122,
      "<placeholder_tok_118>": 123,
      "<placeholder_tok_119>": 124,
      "<placeholder_tok_120>": 125,
      "<placeholder_tok_121>": 126,
      "<placeholder_tok_122>": 127,
      "<placeholder_tok_123>": 128,
      "<placeholder_tok_124>": 129,
      "<placeholder_tok_125>": 130,
      "<placeholder_tok_126>": 131,
      "<placeholder_tok_127>": 132,
      "<placeholder_tok_128>": 133,
      "<placeholder_tok_129>": 134,
      "<placeholder_tok_130>": 135,
      "<placeholder_tok_131>": 136,
      "<placeholder_tok_132>": 137,
      "<placeholder_tok_133>": 138,
      "<placeholder_tok_134>": 139,
      "<placeholder_tok_135>": 140,
      "<placeholder_tok_136>": 141,
      "<placeholder_tok_137>": 142,
      "<placeholder_tok_138>": 143,
      "<placeholder_tok_139>": 144,
      "<placeholder_tok_140>": 145,
      "<placeholder_tok_141>": 146,
      "<placeholder_tok_142>": 147,
      "<placeholder_tok_143>": 148,
      "<placeholder_tok_144>": 149,
      "<placeholder_tok_145>": 150,
      "<placeholder_tok_146>": 151,
      "<placeholder_tok_147>": 152,
      "<placeholder_tok_148>": 153,
      "<placeholder_tok_149>": 154,
      "<placeholder_tok_150>": 155,
      "<placeholder_tok_151>": 156,
      "<placeholder_tok_152>": 157,
      "<placeholder_tok_153>": 158,
      "<placeholder_tok_154>": 159,
      "<placeholder_tok_155>": 160,
      "<placeholder_tok_156>": 161,
      "<placeholder_tok_157>": 162,
      "<placeholder_tok_158>": 163,
      "<placeholder_tok_159>": 164,
      "<placeholder_tok_160>": 165,
      "<placeholder_tok_161>": 166,
      "<placeholder_tok_162>": 167,
      "<placeholder_tok_163>": 168,
      "<placeholder_tok_164>": 169,
      "<placeholder_tok_165>": 170,
      "<placeholder_tok_166>": 171,
      "<placeholder_tok_167>": 172,
      "<placeholder_tok_168>": 173,
      "<placeholder_tok_169>": 174,
      "<placeholder_tok_170>": 175,
      "<placeholder_tok_171>": 176,
      "<placeholder_tok_172>": 177,
      "<placeholder_tok_173>": 178,
      "<placeholder_tok_174>": 179,
      "<placeholder_tok_175>": 180,
      "<placeholder_tok_176>": 181,
      "<placeholder_tok_177>": 182,
      "<placeholder_tok_178>": 183,
      "<placeholder_tok_179>": 184,
      "<placeholder_tok_180>": 185,
      "<placeholder_tok_181>": 186,
      "<placeholder_tok_182>": 187,
      "<placeholder_tok_183>": 188,
      "<placeholder_tok_184>": 189,
      "<placeholder_tok_185>": 190,
      "<placeholder_tok_186>": 191,
      "<placeholder_tok_187>": 192,
      "<placeholder_tok_188>": 193,
      "<placeholder_tok_189>": 194,
      "<placeholder_tok_190>": 195,
      "<placeholder_tok_191>": 196,
      "<placeholder_tok_192>": 197,
      "<placeholder_tok_193>": 198,
      "<placeholder_tok_194>": 199,
      "<placeholder_tok_195>": 200,
      "<placeholder_tok_196>": 201,
      "<placeholder_tok_197>": 202,
      "<placeholder_tok_198>": 203,
      "<placeholder_tok_199>": 204,
      "<placeholder_tok_200>": 205,
      "<placeholder_tok_201>": 206,
      "<placeholder_tok_202>": 207,
      "<placeholder_tok_203>": 208,
      "<placeholder_tok_204>": 209,
      "<placeholder_tok_205>": 210,
      "<placeholder_tok_206>": 211,
      "<placeholder_tok_207>": 212,
      "<placeholder_tok_208>": 213,
      "<placeholder_tok_209>": 214,
      "<placeholder_tok_210>": 215,
      "<placeholder_tok_211>": 216,
      "<placeholder_tok_212>": 217,
      "<placeholder_tok_213>": 218,
      "<placeholder_tok_214>": 219,
      "<placeholder_tok_215>": 220,
      "<placeholder_tok_216>": 221,
      "<placeholder_tok_217>": 222,
      "<placeholder_tok_218>": 223,
      "<placeholder_tok_219>": 224,
      "<placeholder_tok_220>": 225,
      "<placeholder_tok_221>": 226,
      "<placeholder_tok_222>": 227,
      "<placeholder_tok_223>": 228,
      "<placeholder_tok_224>": 229,
      "<placeholder_tok_225>": 230,
      "<placeholder_tok_226>": 231,
      "<placeholder_tok_227>": 232,
      "<placeholder_tok_228>": 233,
      "<placeholder_tok_229>": 234,
      "<placeholder_tok_230>": 235,
      "<placeholder_tok_231>": 236,
      "<placeholder_tok_232>": 237,
      "<placeholder_tok_233>": 238,
      "<placeholder_tok_234>": 239,
      "<placeholder_tok_235>": 240,
      "<placeholder_tok_236>": 241,
      "<placeholder_tok_237>": 242,
      "<placeholder_tok_238>": 243,
      "<placeholder_tok_239>": 244,
      "<placeholder_tok_240>": 245,
      "<placeholder_tok_241>": 246,
      "<placeholder_tok_242>": 247,
      "<placeholder_tok_243>": 248,
      "<placeholder_tok_244>": 249,
      "<placeholder_tok_245>": 250,
      "<placeholder_tok_246>": 251,
      "<placeholder_tok_247>": 252,
      "<placeholder_tok_248>": 253,
      "<placeholder_tok_249>": 254,
      "<placeholder_tok_250>": 255,
      "<placeholder_tok_251>": 256,
      "<placeholder_tok_252>": 257,
      "<placeholder_tok_253>": 258,
      "<placeholder_tok_254>": 259,
      "<placeholder_tok_255>": 260,
      "<0x00>": 261,
      "<0x01>": 262,
      "<0x02>": 263,
      "<0x03>": 264,
      "<0x04>": 265,
      "<0x05>": 266,
      "<0x06>": 267,
      "<0x07>": 268,
      "<0x08>": 269,
      "<0x09>": 270,
      "<0x0A>": 271,
      "<0x0B>": 272,
      "<0x0C>": 273,
      "<0x0D>": 274,
      "<0x0E>": 275,
      "<0x0F>": 276,
      "<0x10>": 277,
      "<0x11>": 278,
      "<0x12>": 279,
      "<0x13>": 280,
      "<0x14>": 281,
      "<0x15>": 282,
      "<0x16>": 283,
      "<0x17>": 284,
      "<0x18>": 285,
      "<0x19>": 286,
      "<0x1A>": 287,
      "<0x1B>": 288,
      "<0x1C>": 289,
      "<0x1D>": 290,
      "<0x1E>": 291,
      "<0x1F>": 292,
      "<0x20>": 293,
      "<0x21>": 294,
      "<0x22>": 295,
      "<0x23>": 296,
      "<0x24>": 297,
      "<0x25>": 298,
      "<0x26>": 299,
      "<0x27>": 300,
      "<0x28>": 301,
      "<0x29>": 302,
      "<0x2A>": 303,
      "<0x2B>": 304,
      "<0x2C>": 305,
      "<0x2D>": 306,
      "<0x2E>": 307,
      "<0x2F>": 308,
      "<0x30>": 309,
      "<0x31>": 310,
      "<0x32>": 311,
      "<0x33>": 312,
      "<0x34>": 313,
      "<0x35>": 314,
      "<0x36>": 315,
      "<0x37>": 316,
      "<0x38>": 317,
      "<0x39>": 318,
      "<0x3A>": 319,
      "<0x3B>": 320,
      "<0x3C>": 321,
      "<0x3D>": 322,
      "<0x3E>": 323,
      "<0x3F>": 324,
      "<0x40>": 325,
      "<0x41>": 326,
      "<0x42>": 327,
      "<0x43>": 328,
      "<0x44>": 329,
      "<0x45>": 330,
      "<0x46>": 331,
      "<0x47>": 332,
      "<0x48>": 333,
      "<0x49>": 334,
      "<0x4A>": 335,
      "<0x4B>": 336,
      "<0x4C>": 337,
      "<0x4D>": 338,
      "<0x4E>": 339,
      "<0x4F>": 340,
      "<0x50>": 341,
      "<0x51>": 342,
      "<0x52>": 343,
      "<0x53>": 344,
      "<0x54>": 345,
      "<0x55>": 346,
      "<0x56>": 347,
      "<0x57>": 348,
      "<0x58>": 349,
      "<0x59>": 350,
      "<0x5A>": 351,
      "<0x5B>": 352,
      "<0x5C>": 353,
      "<0x5D>": 354,
      "<0x5E>": 355,
      "<0x5F>": 356,
      "<0x60>": 357,
      "<0x61>": 358,
      "<0x62>": 359,
      "<0x63>": 360,
      "<0x64>": 361,
      "<0x65>": 362,
      "<0x66>": 363,
      "<0x67>": 364,
      "<0x68>": 365,
      "<0x69>": 366,
      "<0x6A>": 367,
      "<0x6B>": 368,
      "<0x6C>": 369,
      "<0x6D>": 370,
      "<0x6E>": 371,
      "<0x6F>": 372,
      "<0x70>": 373,
      "<0x71>": 374,
      "<0x72>": 375,
      "<0x73>": 376,
      "<0x74>": 377,
      "<0x75>": 378,
      "<0x76>": 379,
      "<0x77>": 380,
      "<0x78>": 381,
      "<0x79>": 382,
      "<0x7A>": 383,
      "<0x7B>": 384,
      "<0x7C>": 385,
      "<0x7D>": 386,
      "<0x7E>": 387,
      "<0x7F>": 388,
      "<0x80>": 389,
      "<0x81>": 390,
      "<0x82>": 391,
      "<0x83>": 392,
      "<0x84>": 393,
      "<0x85>": 394,
      "<0x86>": 395,
      "<0x87>": 396,
      "<0x88>": 397,
      "<0x89>": 398,
      "<0x8A>": 399,
      "<0x8B>": 400,
      "<0x8C>": 401,
      "<0x8D>": 402,
      "<0x8E>": 403,
      "<0x8F>": 404,
      "<0x90>": 405,
      "<0x91>": 406,
      "<0x92>": 407,
      "<0x93>": 408,
      "<0x94>": 409,
      "<0x95>": 410,
      "<0x96>": 411,
      "<0x97>": 412,
      "<0x98>": 413,
      "<0x99>": 414,
      "<0x9A>": 415,
      "<0x9B>": 416,
      "<0x9C>": 417,
      "<0x9D>": 418,
      "<0x9E>": 419,
      "<0x9F>": 420,
      "<0xA0>": 421,
      "<0xA1>": 422,
      "<0xA2>": 423,
      "<0xA3>": 424,
      "<0xA4>": 425,
      "<0xA5>": 426,
      "<0xA6>": 427,
      "<0xA7>": 428,
      "<0xA8>": 429,
      "<0xA9>": 430,
      "<0xAA>": 431,
      "<0xAB>": 432,
      "<0xAC>": 433,
      "<0xAD>": 434,
      "<0xAE>": 435,
      "<0xAF>": 436,
      "<0xB0>": 437,
      "<0xB1>": 438,
      "<0xB2>": 439,
      "<0xB3>": 440,
      "<0xB4>": 441,
      "<0xB5>": 442,
      "<0xB6>": 443,
      "<0xB7>": 444,
      "<0xB8>": 445,
      "<0xB9>": 446,
      "<0xBA>": 447,
      "<0xBB>": 448,
      "<0xBC>": 449,
      "<0xBD>": 450,
      "<0xBE>": 451,
      "<0xBF>": 452,
      "<0xC0>": 453,
      "<0xC1>": 454,
      "<0xC2>": 455,
      "<0xC3>": 456,
      "<0xC4>": 457,
      "<0xC5>": 458,
      "<0xC6>": 459,
      "<0xC7>": 460,
      "<0xC8>": 461,
      "<0xC9>": 462,
      "<0xCA>": 463,
      "<0xCB>": 464,
      "<0xCC>": 465,
      "<0xCD>": 466,
      "<0xCE>": 467,
      "<0xCF>": 468,
      "<0xD0>": 469,
      "<0xD1>": 470,
      "<0xD2>": 471,
      "<0xD3>": 472,
      "<0xD4>": 473,
      "<0xD5>": 474,
      "<0xD6>": 475,
      "<0xD7>": 476,
      "<0xD8>": 477,
      "<0xD9>": 478,
      "<0xDA>": 479,
      "<0xDB>": 480,
      "<0xDC>": 481,
      "<0xDD>": 482,
      "<0xDE>": 483,
      "<0xDF>": 484,
      "<0xE0>": 485,
      "<0xE1>": 486,
      "<0xE2>": 487,
      "<0xE3>": 488,
      "<0xE4>": 489,
      "<0xE5>": 490,
      "<0xE6>": 491,
      "<0xE7>": 492,
      "<0xE8>": 493,
      "<0xE9>": 494,
      "<0xEA>": 495,
      "<0xEB>": 496,
      "<0xEC>": 497,
      "<0xED>": 498,
      "<0xEE>": 499,
      "<0xEF>": 500,
      "<0xF0>": 501,
      "<0xF1>": 502,
      "<0xF2>": 503,
      "<0xF3>": 504,
      "<0xF4>": 505,
      "<0xF5>": 506,
      "<0xF6>": 507,
      "<0xF7>": 508,
      "<0xF8>": 509,
      "<0xF9>": 510,
      "<0xFA>": 511,
      "<0xFB>": 512,
      "<0xFC>": 513,
      "<0xFD>": 514,
      "<0xFE>": 515,
      "<0xFF>": 516,
      "!": 517,
      "\"": 518,
      "#": 519,
      "$": 520,
      "%": 521,
      "&": 522,
      "'": 523,
      "(": 524,
      ")": 525,
      "*": 526,
      "+": 527,
      ",": 528,
      "-": 529,
      ".": 530,
      "/": 531,
      "0": 532,
      "1": 533,
      "2": 534,
      "3": 535,
      "4": 536,
      "5": 537,
      "6": 538,
      "7": 539,
      "8": 540,
      "9": 541,
      ":": 542,
      ";": 543,
      "<": 544,
      "=": 545,
      ">": 546,
      "?": 547,
      "@": 548,
      "A": 549,
      "B": 550,
      "C": 551,
      "D": 552,
      "E": 553,
      "F": 554,
      "G": 555,
      "H": 556,
      "I": 557,
      "J": 558,
      "K": 559,
      "L": 560,
      "M": 561,
      "N": 562,
      "O": 563,
      "P": 564,
      "Q": 565,
      "R": 566,
      "S": 567,
      "T": 568,
      "U": 569,
      "V": 570,
      "W": 571,
      "X": 572,
      "Y": 573,
      "Z": 574,
      "[": 575,
      "\\": 576,
      "]": 577,
      "^": 578,
      "_": 579,
      "`": 580,
      "a": 581,
      "b": 582,
      "c": 583,
      "d": 584,
      "e": 585,
      "f": 586,
      "g": 587,
      "h": 588,
      "i": 589,
      "j": 590,
      "k": 591,
      "l": 592,
      "m": 593,
      "n": 594,
      "o": 595,
      "p": 596,
      "q": 597,
      "r": 598,
      "s": 599,
      "t": 600,
      "u": 601,
      "v": 602,
      "w": 603,
      "x": 604,
      "y": 605,
      "z": 606,
      "{": 607,
      "|": 608,
      "}": 609,
      "~": 610,
      "¡": 611,
      "¢": 612,
      "£": 613,
      "¤": 614,
      "¥": 615,
      "¦": 616,
      "§": 617,
      "¨": 618,
      "©": 619,
      "ª": 620,
      "«": 621,
      "¬": 622,
      "®": 623,
      "¯": 624,
      "°": 625,
      "±": 626,
      "²": 627,
      "³": 628,
      "´": 629,
      "µ": 630,
      "¶": 631,
      "·": 632,
      "¸": 633,
      "¹": 634,
      "º": 635,
      "»": 636,
      "¼": 637,
      "½": 638,
      "¾": 639,
      "¿": 640,
      "Â": 641,
      "Ã": 642,
      "Ä": 643,
      "Å": 644,
      "Æ": 645,
      "Ç": 646,
      "È": 647,
      "É": 648,
      "Ê": 649,
      "Ë": 650,
      "Ì": 651,
      "Í": 652,
      "Î": 653,
      "Ï": 654,
      "Ð": 655,
      "Ñ": 656,
      "Ò": 657,
      "Ó": 658,
      "Ô": 659,
      "Õ": 660,
      "Ö": 661,
      "×": 662,
      "Ø": 663,
      "Ù": 664,
      "Ú": 665,
      "Û": 666,
      "Ü": 667,
      "Ý": 668,
      "Þ": 669,
      "ß": 670,
      "à": 671,
      "á": 672,
      "â": 673,
      "ã": 674,
      "ä": 675,
      "å": 676,
      "æ": 677,
      "ç": 678,
      "è": 679,
      "é": 680,
      "ê": 681,
      "ë": 682,
      "ì": 683,
      "í": 684,
      "î": 685,
      "ï": 686,
      "ð": 687,
      "ñ": 688,
      "ò": 689,
      "ó": 690,
      "ô": 691,
      "Ā": 692,
      "ā": 693,
      "Ă": 694,
      "ă": 695,
      "Ą": 696,
      "ą": 697,
      "Ć": 698,
      "ć": 699,
      "Ĉ": 700,
      "ĉ": 701,
      "Ċ": 702,
      "ċ": 703,
      "Č": 704,
      "č": 705,
      "Ď": 706,
      "ď": 707,
      "Đ": 708,
      "đ": 709,
      "Ē": 710,
      "ē": 711,
      "Ĕ": 712,
      "ĕ": 713,
      "Ė": 714,
      "ė": 715,
      "Ę": 716,
      "ę": 717,
      "Ě": 718,
      "ě": 719,
      "Ĝ": 720,
      "ĝ": 721,
      "Ğ": 722,
      "ğ": 723,
      "Ġ": 724,
      "ġ": 725,
      "Ģ": 726,
      "ģ": 727,
      "Ĥ": 728,
      "ĥ": 729,
      "Ħ": 730,
      "ħ": 731,
      "Ĩ": 732,
      "ĩ": 733,
      "Ī": 734,
      "ī": 735,
      "Ĭ": 736,
      "ĭ": 737,
      "Į": 738,
      "į": 739,
      "İ": 740,
      "ı": 741,
      "Ĳ": 742,
      "ĳ": 743,
      "Ĵ": 744,
      "ĵ": 745,
      "Ķ": 746,
      "ķ": 747,
      "ĸ": 748,
      "Ĺ": 749,
      "ĺ": 750,
      "Ļ": 751,
      "ļ": 752,
      "Ľ": 753,
      "ľ": 754,
      "Ŀ": 755,
      "ŀ": 756,
      "Ł": 757,
      "ł": 758,
      "Ń": 759,
      "Ġt": 760,
      "Ġa": 761,
      "in": 762,
      "he": 763,
      "re": 764,
      "on": 765,
      "ĠĠ": 766,
      "er": 767,
      "Ġthe": 768,
      "Ġs": 769,
      "at": 770,
      "Ġo": 771,
      "Ġw": 772,
      "en": 773,
      "Ġc": 774,
      "it": 775,
      "es": 776,
      "or": 777,
      "is": 778,
      "nd": 779,
      "ou": 780,
      "Ġp": 781,
      "ing": 782,
      "Ġf": 783,
      "Ġb": 784,
      "al": 785,
      "an": 786,
      "ed": 787,
      "Ġm": 788,
      "Ġto": 789,
      "ar": 790,
      "Ġof": 791,
      "Ġin": 792,
      "Ġand": 793,
      "Ġd": 794,
      "ion": 795,
      "ic": 796,
      "le": 797,
      "ĠĠĠĠ": 798,
      "as": 799,
      "om": 800,
      "Ġh": 801,
      "Ġth": 802,
      "ent": 803,
      "ll": 804,
      "Ġre": 805,
      "ct": 806,
      "ro": 807,
      "st": 808,
      "Ġl": 809,
      "Ġn": 810,
      "Ġe": 811,
      "ve": 812,
      "et": 813,
      "Ġy": 814,
      "ly": 815,
      "âĢ": 816,
      "Ġg": 817,
      "ĠT": 818,
      "Ġyou": 819,
      "id": 820,
      "ot": 821,
      "Ġis": 822,
      "ĠI": 823,
      "ut": 824,
      "Ġbe": 825,
      "im": 826,
      "se": 827,
      "ce": 828,
      "Ġon": 829,
      "Ġfor": 830,
      "ow": 831,
      "ur": 832,
      "ig": 833,
      "ĠS": 834,
      "am": 835,
      "ay": 836,
      "ation": 837,
      "ĠA": 838,
      "Ġthat": 839,
      "ĠC": 840,
      "ad": 841,
      "Ġu": 842,
      "ch": 843,
      "ver": 844,
      "il": 845,
      "ol": 846,
      "Ġst": 847,
      "ith": 848,
      "ir": 849,
      "Ġwith": 850,
      "ra": 851,
      "Ġit": 852,
      "Ġwe": 853,
      "if": 854,
      "Ġas": 855,
      "Ġhe": 856,
      "Ġan": 857,
      "ĠM": 858,
      "ĠĠĠĠĠĠĠĠ": 859,
      "âĢĻ": 860,
      "ter": 861,
      "Ġcon": 862,
      "Ġpro": 863,
      "Ġwh": 864,
      "ĠP": 865,
      "od": 866,
      "ul": 867,
      "ill": 868,
      "ate": 869,
      "ge": 870,
      "Ġare": 871,
      "ers": 872,
      "ment": 873,
      "ĠB": 874,
      "pp": 875,
      "Ġ(": 876,
      "ab": 877,
      "Ġor": 878,
      "ke": 879,
      "ess": 880,
      "ĠThe": 881,
      "el": 882,
      "her": 883,
      "est": 884,
      "Ġha": 885,
      "ri": 886,
      "us": 887,
      "Ġcom": 888,
      "ac": 889,
      "ĠW": 890,
      "qu": 891,
      "Ġv": 892,
      "ore": 893,
      "Ġex": 894,
      "Ġde": 895,
      "ĠĠĠ": 896,
      "ĠH": 897,
      "th": 898,
      "ist": 899,
      "Ġsu": 900,
      "igh": 901,
      "ld": 902,
      "ĠD": 903,
      "op": 904,
      "ant": 905,
      "Ġse": 906,
      "ĠF": 907,
      "Ġat": 908,
      "res": 909,
      "rom": 910,
      "em": 911,
      "ity": 912,
      "Ġne": 913,
      "Ġwas": 914,
      "os": 915,
      "um": 916,
      "nt": 917,
      "ect": 918,
      "ive": 919,
      "ain": 920,
      "ort": 921,
      "ĠR": 922,
      "Ġyour": 923,
      "un": 924,
      "oc": 925,
      "Ġnot": 926,
      "Ġcan": 927,
      "Ġr": 928,
      "Ġal": 929,
      "ies": 930,
      "Ġby": 931,
      "ĠL": 932,
      "end": 933,
      "art": 934,
      "Ġthis": 935,
      "Ġhave": 936,
      "ĠG": 937,
      "Ġfrom": 938,
      "ĠE": 939,
      "ust": 940,
      "Ġsh": 941,
      "ight": 942,
      "and": 943,
      "ĠN": 944,
      "Ġch": 945,
      "iv": 946,
      "pt": 947,
      "red": 948,
      "ine": 949,
      "ial": 950,
      "ud": 951,
      "Ġle": 952,
      "ost": 953,
      "pe": 954,
      "all": 955,
      "ĠO": 956,
      "out": 957,
      "ome": 958,
      "ould": 959,
      "ĠâĢ": 960,
      "our": 961,
      "ure": 962,
      "Ġpl": 963,
      "ard": 964,
      "Ġwill": 965,
      "Ġab": 966,
      "Ġwor": 967,
      "ag": 968,
      "per": 969,
      "ok": 970,
      "ide": 971,
      "pl": 972,
      "ction": 973,
      "Ġdo": 974,
      "ie": 975,
      "rou": 976,
      "Ġall": 977,
      "age": 978,
      "gh": 979,
      "Ġj": 980,
      "Ġus": 981,
      "te": 982,
      "ally": 983,
      "ff": 984,
      "og": 985,
      "ak": 986,
      "Ġk": 987,
      "ther": 988,
      "Ġad": 989,
      "able": 990,
      "Ġwhe": 991,
      "ĠJ": 992,
      "iz": 993,
      "ind": 994,
      "ich": 995,
      "ame": 996,
      "ack": 997,
      "ice": 998,
      "Ġen": 999,
      "ated": 1000,
      "ast": 1001,
      "Ġme": 1002,
      "Ġhas": 1003,
      "Ġgo": 1004,
      "one": 1005,
      "Ġcomp": 1006,
      "Ġcl": 1007,
      "ear": 1008,
      "ip": 1009,
      "The": 1010,
      "Ġ$": 1011,
      "Ġim": 1012,
      "ite": 1013,
      "orm": 1014,
      "Ġtr": 1015,
      "ue": 1016,
      "are": 1017,
      "cc": 1018,
      "ĠU": 1019,
      "ake": 1020,
      "ime": 1021,
      "Ġtheir": 1022,
      "'s": 1023,
      "ong": 1024,
      "Ġbut": 1025,
      "Ġthey": 1026,
      "ans": 1027,
      "ib": 1028,
      "..": 1029,
      "Ġout": 1030,
      "ions": 1031,
      "ook": 1032,
      "ous": 1033,
      "so": 1034,
      "cl": 1035,
      "ance": 1036,
      "ĠIn": 1037,
      "Ġcont": 1038,
      "act": 1039,
      "ass": 1040,
      "ult": 1041,
      "ĠTh": 1042,
      "ĊĠĠĠĠ": 1043,
      "Ġres": 1044,
      "Ġmore": 1045,
      "âĢĿ": 1046,
      "Ġso": 1047,
      "Ġup": 1048,
      "very": 1049,
      "ap": 1050,
      "Ġwhich": 1051,
      "Ġapp": 1052,
      "du": 1053,
      "ĊĠĠĠĠĠĠĠĠ": 1054,
      "ase": 1055,
      "ub": 1056,
      "Ġone": 1057,
      "Ġ=": 1058,
      "ations": 1059,
      "ary": 1060,
      "ign": 1061,
      "Ġ\\": 1062,
      "ep": 1063,
      "Ġ\"": 1064,
      "Ġint": 1065,
      "Ġhis": 1066,
      "Ġman": 1067,
      "ber": 1068,
      "ike": 1069,
      "ile": 1070,
      "ach": 1071,
      "ĠY": 1072,
      "Ġalso": 1073,
      "ose": 1074,
      "ical": 1075,
      "ire": 1076,
      "ia": 1077,
      "ace": 1078,
      "Ġte": 1079,
      "Ġsp": 1080,
      "Ġour": 1081,
      "ence": 1082,
      "ĊĠĠĠ": 1083,
      "ress": 1084,
      "--": 1085,
      "ry": 1086,
      "ree": 1087,
      "Ġother": 1088,
      "av": 1089,
      "Ġfe": 1090,
      "form": 1091,
      "ru": 1092,
      "Ġif": 1093,
      "Ġper": 1094,
      "Ġabout": 1095,
      "Ġun": 1096,
      "Ġqu": 1097,
      "ition": 1098,
      "Ġdis": 1099,
      "Ġwho": 1100,
      "ail": 1101,
      "own": 1102,
      "au": 1103,
      "Ġmy": 1104,
      "Ġwork": 1105,
      "Ġev": 1106,
      "Ġany": 1107,
      "reat": 1108,
      "ount": 1109,
      "fe": 1110,
      "Ġtime": 1111,
      "ord": 1112,
      "ĠâĢľ": 1113,
      "erv": 1114,
      "vel": 1115,
      "Ġwere": 1116,
      "Ġpart": 1117,
      "ĠK": 1118,
      "port": 1119,
      "ck": 1120,
      "ĠSt": 1121,
      "ĠIt": 1122,
      "ark": 1123,
      "Ġsa": 1124,
      "ays": 1125,
      "Ġoff": 1126,
      "Ġnew": 1127,
      "Ġget": 1128,
      "Ġlike": 1129,
      "Ġthere": 1130,
      "Ġar": 1131,
      "ens": 1132,
      "int": 1133,
      "Ġ{": 1134,
      "ents": 1135,
      "Ġthem": 1136,
      "Ġsome": 1137,
      "lo": 1138,
      "ings": 1139,
      "ne": 1140,
      "ick": 1141,
      "ĠV": 1142,
      "Ġhad": 1143,
      "con": 1144,
      ");": 1145,
      "ang": 1146,
      "Ġag": 1147,
      "ors": 1148,
      "Ġwhen": 1149,
      "ild": 1150,
      "Ġpe": 1151,
      "Ġher": 1152,
      ").": 1153,
      "Ġbeen": 1154,
      "Ġpre": 1155,
      "ove": 1156,
      "Ġsc": 1157,
      "xt": 1158,
      "Ġover": 1159,
      "urn": 1160,
      "ĊĠĠĠĠĠĠĠ": 1161,
      "ph": 1162,
      "ĠCh": 1163,
      "ath": 1164,
      "ren": 1165,
      "Ġ-": 1166,
      "Ġwhat": 1167,
      "ound": 1168,
      "lic": 1169,
      "Ġacc": 1170,
      "Ġyear": 1171,
      "ual": 1172,
      "ory": 1173,
      "Ġkn": 1174,
      "com": 1175,
      "Ġthan": 1176,
      "ink": 1177,
      "Ġno": 1178,
      "Ġhow": 1179,
      "ough": 1180,
      "Ġwould": 1181,
      "Ġneed": 1182,
      "Ġro": 1183,
      "ĠWe": 1184,
      "nder": 1185,
      "ople": 1186,
      "old": 1187,
      "ĠĠĠĠĠĠĠĠĠĠĠĠĠĠĠĠ": 1188,
      "Ġinto": 1189,
      "ĠThis": 1190,
      "ments": 1191,
      "Ġbet": 1192,
      "Ġcomm": 1193,
      "Ġmay": 1194,
      "Ġind": 1195,
      "ces": 1196,
      "ish": 1197,
      "rent": 1198,
      "we": 1199,
      "irst": 1200,
      "ject": 1201,
      "fter": 1202,
      "Ġam": 1203,
      "wn": 1204,
      "Ġits": 1205,
      "Ġ'": 1206,
      "ĠHe": 1207,
      "Ġdes": 1208,
      "ty": 1209,
      "clud": 1210,
      "Ġbec": 1211,
      "vers": 1212,
      "bs": 1213,
      "oll": 1214,
      "ates": 1215,
      "ov": 1216,
      "Ġpeople": 1217,
      "rough": 1218,
      "ater": 1219,
      "Ġprov": 1220,
      "ĉĉ": 1221,
      "Ġuse": 1222,
      "Ġspe": 1223,
      "Ġem": 1224,
      "Ġcons": 1225,
      "Ġjust": 1226,
      "ious": 1227,
      "ple": 1228,
      "oy": 1229,
      "Ġadd": 1230,
      "ft": 1231,
      "get": 1232,
      "ull": 1233,
      "iew": 1234,
      "ific": 1235,
      "ause": 1236,
      "//": 1237,
      "ian": 1238,
      "ert": 1239,
      "Ġact": 1240,
      "ade": 1241,
      "wo": 1242,
      "lp": 1243,
      "tern": 1244,
      "Ġrec": 1245,
      "line": 1246,
      "ise": 1247,
      "Ġdif": 1248,
      "ric": 1249,
      "Ġmake": 1250,
      "hed": 1251,
      "Ġmost": 1252,
      "Ġonly": 1253,
      "),": 1254,
      "Ġhelp": 1255,
      "Ġthese": 1256,
      "Ġunder": 1257,
      "eth": 1258,
      "Ġsupp": 1259,
      "ons": 1260,
      "ef": 1261,
      "itt": 1262,
      "Ġshe": 1263,
      "sel": 1264,
      "ock": 1265,
      "=\"": 1266,
      "ating": 1267,
      "Ġwell": 1268,
      "Ġass": 1269,
      "ning": 1270,
      "cre": 1271,
      "oss": 1272,
      "Ġrel": 1273,
      "Ġknow": 1274,
      "lect": 1275,
      "Ġfirst": 1276,
      "==": 1277,
      "erm": 1278,
      "cess": 1279,
      "row": 1280,
      "cial": 1281,
      "Ġprodu": 1282,
      "Ġbu": 1283,
      "Ġsy": 1284,
      "ob": 1285,
      "Ġsaid": 1286,
      "Ġexp": 1287,
      "Ġreg": 1288,
      "Ġ*": 1289,
      "Ġtra": 1290,
      "ĠYou": 1291,
      "ced": 1292,
      "ond": 1293,
      "ata": 1294,
      "Ġco": 1295,
      "ily": 1296,
      "Ġ&": 1297,
      "hen": 1298,
      "Ġthrough": 1299,
      "les": 1300,
      "Ġ<": 1301,
      "ular": 1302,
      "Ġplay": 1303,
      "Ġwant": 1304,
      "Ġinclud": 1305,
      "Ġlook": 1306,
      "Ġinv": 1307,
      "ities": 1308,
      "iss": 1309,
      "round": 1310,
      "Ġevery": 1311,
      "Ġbl": 1312,
      "Ġph": 1313,
      "In": 1314,
      "ys": 1315,
      "gr": 1316,
      "Ġcould": 1317,
      "ell": 1318,
      "ring": 1319,
      "ility": 1320,
      "ĊĠ": 1321,
      "Ġatt": 1322,
      "Ġtwo": 1323,
      "ont": 1324,
      "ĠRe": 1325,
      "ied": 1326,
      "fore": 1327,
      "Ġshould": 1328,
      "ible": 1329,
      "Ġserv": 1330,
      "rib": 1331,
      "ange": 1332,
      "Ġsee": 1333,
      "Ġpo": 1334,
      "aw": 1335,
      "mer": 1336,
      "Ġpr": 1337,
      "Ġdown": 1338,
      "ener": 1339,
      "oth": 1340,
      "erson": 1341,
      "ife": 1342,
      "ood": 1343,
      "Ġret": 1344,
      "Ġback": 1345,
      "ative": 1346,
      "Ġeff": 1347,
      "ting": 1348,
      "Ġway": 1349,
      "Ġ[": 1350,
      "ss": 1351,
      "Ġmany": 1352,
      "Ġstud": 1353,
      "Ġwhere": 1354,
      "Ġsuch": 1355,
      "Ġafter": 1356,
      "ient": 1357,
      "Ġexper": 1358,
      "rit": 1359,
      "als": 1360,
      "Ġthen": 1361,
      "ased": 1362,
      "Ġrem": 1363,
      "ĠâĢĵ": 1364,
      "olog": 1365,
      "Ġ}": 1366,
      "stem": 1367,
      "ps": 1368,
      "pro": 1369,
      "Ġset": 1370,
      "ful": 1371,
      "...": 1372,
      "Ġeven": 1373,
      "ork": 1374,
      "Ġke": 1375,
      "Ġdiffe": 1376,
      "Ġrequ": 1377,
      "_{": 1378,
      "ices": 1379,
      "'t": 1380,
      "ract": 1381,
      "ĊĠĠĠĠĠĠĠĠĠĠĠ": 1382,
      "Ġvery": 1383,
      "Ġra": 1384,
      "Ġcol": 1385,
      "iness": 1386,
      "ption": 1387,
      "ower": 1388,
      "uch": 1389,
      "any": 1390,
      "Ġent": 1391,
      "Ġac": 1392,
      "ures": 1393,
      "its": 1394,
      "Ġhim": 1395,
      "ew": 1396,
      "Ġright": 1397,
      "gin": 1398,
      "ident": 1399,
      "Ġinst": 1400,
      "aking": 1401,
      "Ġsm": 1402,
      "Ġmod": 1403,
      "ize": 1404,
      "ex": 1405,
      "ics": 1406,
      "ax": 1407,
      "ublic": 1408,
      "Ġgood": 1409,
      "Ġbest": 1410,
      "alth": 1411,
      "Ġcas": 1412,
      "hat": 1413,
      "Ġbecause": 1414,
      "Ġfind": 1415,
      "Ġfin": 1416,
      "Ġdef": 1417,
      "cy": 1418,
      "ble": 1419,
      "ward": 1420,
      "arch": 1421,
      "ational": 1422,
      "ict": 1423,
      "Ġown": 1424,
      "ĠIf": 1425,
      "Ġtrans": 1426,
      "Ġhigh": 1427,
      "ĠUn": 1428,
      "Ġyears": 1429,
      "Ġfl": 1430,
      "Ġsim": 1431,
      "be": 1432,
      "uring": 1433,
      "ĠCom": 1434,
      "ts": 1435,
      "ĊĊ": 1436,
      "hip": 1437,
      "formation": 1438,
      "Ġnum": 1439,
      "ale": 1440,
      "Ġlong": 1441,
      "Ġdid": 1442,
      "Ġpres": 1443,
      "ank": 1444,
      "velop": 1445,
      "Ġsub": 1446,
      "usiness": 1447,
      "ience": 1448,
      "ool": 1449,
      "Ġval": 1450,
      "other": 1451,
      "hes": 1452,
      "Ġsl": 1453,
      "ually": 1454,
      "ever": 1455,
      "Ġperson": 1456,
      "ited": 1457,
      "Ġfun": 1458,
      "riv": 1459,
      "Ġstart": 1460,
      "**": 1461,
      "ĠAnd": 1462,
      "Ġnow": 1463,
      "Ġgreat": 1464,
      "Ġresp": 1465,
      "ollow": 1466,
      "Ġvar": 1467,
      "Ġins": 1468,
      "Ġinter": 1469,
      "self": 1470,
      "Ġdoes": 1471,
      "day": 1472,
      "ec": 1473,
      "gan": 1474,
      "und": 1475,
      "iet": 1476,
      "ues": 1477,
      "Ġused": 1478,
      "Ġend": 1479,
      "Ġtake": 1480,
      "Ġmark": 1481,
      "Ġdet": 1482,
      "Ġty": 1483,
      "Ġmuch": 1484,
      "Ġgu": 1485,
      "ĠPro": 1486,
      "</": 1487,
      "Ġbefore": 1488,
      "Ġext": 1489,
      "Ġread": 1490,
      "up": 1491,
      "Ġob": 1492,
      "ix": 1493,
      "ution": 1494,
      "Ġshow": 1495,
      "ode": 1496,
      "io": 1497,
      "Ġclass": 1498,
      "Ġdec": 1499,
      "Ġdon": 1500,
      "Ġdifferent": 1501,
      "Ġthose": 1502,
      "Ġagain": 1503,
      "Ġbeing": 1504,
      "Ġform": 1505,
      "ames": 1506,
      "Ġmed": 1507,
      "air": 1508,
      "Ġinte": 1509,
      "Ġsign": 1510,
      "der": 1511,
      "Ġmon": 1512,
      "Ġcall": 1513,
      "ng": 1514,
      "ek": 1515,
      "Ġsur": 1516,
      "ween": 1517,
      "Ġonline": 1518,
      "Ġworld": 1519,
      "Ġmin": 1520,
      "Ġcar": 1521,
      "Ġloc": 1522,
      "tt": 1523,
      "Ġhand": 1524,
      "Ġsystem": 1525,
      "rest": 1526,
      "Ġeach": 1527,
      ".âĢĿ": 1528,
      "----": 1529,
      "Th": 1530,
      "ines": 1531,
      "ner": 1532,
      "ized": 1533,
      "Ġresult": 1534,
      "ness": 1535,
      "ages": 1536,
      "Ġmade": 1537,
      "Ġav": 1538,
      "view": 1539,
      "led": 1540,
      "Ġche": 1541,
      "Ġfollow": 1542,
      "Ġcre": 1543,
      "Ġbel": 1544,
      "ĠFor": 1545,
      "Ġbusiness": 1546,
      "iel": 1547,
      "Ġlife": 1548,
      "alk": 1549,
      "Ġcour": 1550,
      "Ġdevelop": 1551,
      "Ġaut": 1552,
      "atch": 1553,
      "Ġday": 1554,
      "Ġbetween": 1555,
      "ody": 1556,
      "Ġinformation": 1557,
      "the": 1558,
      "{\\": 1559,
      "Ġthink": 1560,
      "Ġimport": 1561,
      "Ġhere": 1562,
      "imes": 1563,
      "ĠAn": 1564,
      "St": 1565,
      "Ġcur": 1566,
      "Ġdata": 1567,
      "ĠSe": 1568,
      "ĠAs": 1569,
      "ven": 1570,
      "ality": 1571,
      "Ġdisc": 1572,
      "ute": 1573,
      "ref": 1574,
      "Ġwhile": 1575,
      "Ġmem": 1576,
      "Ġprovid": 1577,
      "Ġchar": 1578,
      "Ġstr": 1579,
      "ĠĠĠĠĠĠĠ": 1580,
      "ave": 1581,
      "ince": 1582,
      "ives": 1583,
      "read": 1584,
      "Ġfam": 1585,
      ".\"": 1586,
      "Ġproduct": 1587,
      "ins": 1588,
      "Ġdep": 1589,
      "chn": 1590,
      "ctions": 1591,
      "Ġop": 1592,
      "pr": 1593,
      "Ġsame": 1594,
      "Ġ.": 1595,
      "Ġgener": 1596,
      "Ġfact": 1597,
      "Ġpol": 1598,
      "ier": 1599,
      "Ġusing": 1600,
      "ustom": 1601,
      "Ġcomple": 1602,
      "Ġreturn": 1603,
      "Ġhome": 1604,
      "Ġear": 1605,
      "ason": 1606,
      "Ġcor": 1607,
      "irect": 1608,
      "ĠAl": 1609,
      "ms": 1610,
      "Ġprocess": 1611,
      "Ġeffect": 1612,
      "ather": 1613,
      "Ġlot": 1614,
      "Ġsupport": 1615,
      "Ġpur": 1616,
      "way": 1617,
      "Ġcount": 1618,
      "ino": 1619,
      "Ġgr": 1620,
      "gram": 1621,
      "Ġrep": 1622,
      "Ġadv": 1623,
      "Ġinf": 1624,
      "Ġfound": 1625,
      "Ġfree": 1626,
      "oun": 1627,
      "ield": 1628,
      "Ġlead": 1629,
      "Ġmarket": 1630,
      "ash": 1631,
      "ouse": 1632,
      "Ġser": 1633,
      "Ġboth": 1634,
      "Ġstate": 1635,
      "gg": 1636,
      "()": 1637,
      "Ġart": 1638,
      "Ġposs": 1639,
      "ĠThey": 1640,
      "Ġvis": 1641,
      "cept": 1642,
      "ĠBut": 1643,
      "ined": 1644,
      "az": 1645,
      "Ġdist": 1646,
      "Ġpublic": 1647,
      "Ġdesign": 1648,
      "akes": 1649,
      "ĠHow": 1650,
      "Ġed": 1651,
      "Ġsom": 1652,
      "ants": 1653,
      "Ġpat": 1654,
      "ars": 1655,
      "Ġpartic": 1656,
      "Ġbo": 1657,
      "ĠThere": 1658,
      "Ġpoint": 1659,
      "less": 1660,
      "âĢľ": 1661,
      "Ġ$\\": 1662,
      "Ġhealth": 1663,
      "amp": 1664,
      "ature": 1665,
      "Ġcare": 1666,
      "Ġprof": 1667,
      "ger": 1668,
      "Ġchild": 1669,
      "over": 1670,
      "ĠNew": 1671,
      "Ġcle": 1672,
      "Ġreal": 1673,
      "Ġthough": 1674,
      "Ġappro": 1675,
      "Ġeas": 1676,
      "Ġsol": 1677,
      "roup": 1678,
      "chool": 1679,
      "Ġtest": 1680,
      "Ġaround": 1681,
      "Ġfeel": 1682,
      "Ġcommun": 1683,
      "to": 1684,
      "Ġstill": 1685,
      "Ġconst": 1686,
      "ĠDe": 1687,
      "We": 1688,
      "cer": 1689,
      "Ġincre": 1690,
      "ically": 1691,
      "vent": 1692,
      "aint": 1693,
      "ired": 1694,
      "Ġpay": 1695,
      "cond": 1696,
      "ah": 1697,
      "Ġnumber": 1698,
      "ER": 1699,
      "Ġ|": 1700,
      "uc": 1701,
      "ared": 1702,
      "ruct": 1703,
      "Ġref": 1704,
      "Ġmust": 1705,
      "Ġplace": 1706,
      "ider": 1707,
      "gy": 1708,
      "me": 1709,
      "ected": 1710,
      "ying": 1711,
      "ital": 1712,
      "sp": 1713,
      "à¸": 1714,
      "Ġlar": 1715,
      "Ġexam": 1716,
      "ways": 1717,
      "Ġlast": 1718,
      "ists": 1719,
      "Ġconf": 1720,
      "work": 1721,
      "ivers": 1722,
      "Ġwithout": 1723,
      "Ġbook": 1724,
      "Ġgoing": 1725,
      "arm": 1726,
      "Ġi": 1727,
      "ved": 1728,
      "ving": 1729,
      "cent": 1730,
      "ills": 1731,
      "load": 1732,
      "Ġsk": 1733,
      "ĠQ": 1734,
      "ertain": 1735,
      "ling": 1736,
      "oney": 1737,
      "Ġimportant": 1738,
      "iqu": 1739,
      "Ġallow": 1740,
      "It": 1741,
      "land": 1742,
      "ĠSh": 1743,
      "Ġreally": 1744,
      "ĠAr": 1745,
      "stand": 1746,
      "ural": 1747,
      "__": 1748,
      "par": 1749,
      "Ġimp": 1750,
      "ential": 1751,
      "ĠOn": 1752,
      "Ċĉĉ": 1753,
      "ism": 1754,
      "Ġcustom": 1755,
      "Ġfew": 1756,
      "ivid": 1757,
      "Ġmight": 1758,
      "ology": 1759,
      "ters": 1760,
      "math": 1761,
      "Ġspec": 1762,
      "ets": 1763,
      "ĊĠĠĠĠĠ": 1764,
      "Ġcho": 1765,
      "Ġweek": 1766,
      "Ġtechn": 1767,
      "eng": 1768,
      "ional": 1769,
      "ense": 1770,
      "Ġel": 1771,
      "sc": 1772,
      "app": 1773,
      "ross": 1774,
      "ĠCl": 1775,
      "ĠWh": 1776,
      "Ġthree": 1777,
      "ug": 1778,
      "Ġcase": 1779,
      "Ġsay": 1780,
      "Ġplan": 1781,
      "Ġlear": 1782,
      "Ġduring": 1783,
      "ĠAd": 1784,
      "uss": 1785,
      "ients": 1786,
      "\">": 1787,
      "ton": 1788,
      "ethod": 1789,
      "Ġthings": 1790,
      "Ġdel": 1791,
      "ator": 1792,
      "rol": 1793,
      "Ġcr": 1794,
      "bers": 1795,
      "Ċĉ": 1796,
      "Ġcontin": 1797,
      "Ġlist": 1798,
      "ection": 1799,
      "Ġsoc": 1800,
      "Ġprogram": 1801,
      "riend": 1802,
      "Ġtri": 1803,
      "Ġfil": 1804,
      "Ġlevel": 1805,
      "Ġmat": 1806,
      "====": 1807,
      "raph": 1808,
      "Ġhapp": 1809,
      "of": 1810,
      "err": 1811,
      "ik": 1812,
      "Ġrun": 1813,
      "Ġiss": 1814,
      "Ġtop": 1815,
      "man": 1816,
      "Ġorder": 1817,
      "Ġteam": 1818,
      "meric": 1819,
      "ead": 1820,
      "rand": 1821,
      "Ġkeep": 1822,
      "ien": 1823,
      "Ġgame": 1824,
      "ploy": 1825,
      "ining": 1826,
      "Ġfull": 1827,
      "Ġinterest": 1828,
      "text": 1829,
      "oid": 1830,
      "ittle": 1831,
      "Ġperform": 1832,
      "Ġest": 1833,
      "Ġname": 1834,
      ",âĢĿ": 1835,
      "Ġaddition": 1836,
      "::": 1837,
      "Ġinvest": 1838,
      "Ġavail": 1839,
      "els": 1840,
      "Ġwom": 1841,
      "Ġsit": 1842,
      "Ġsmall": 1843,
      "ething": 1844,
      "Ġproper": 1845,
      "Ġincluding": 1846,
      "co": 1847,
      "Ġtoo": 1848,
      "Ġpos": 1849,
      "This": 1850,
      "ots": 1851,
      "ves": 1852,
      "Ġopen": 1853,
      "Ġable": 1854,
      "Ġequ": 1855,
      "Ġpost": 1856,
      "ision": 1857,
      "ĠPl": 1858,
      "thing": 1859,
      "Ġquest": 1860,
      "Ġproble": 1861,
      "Ġprot": 1862,
      "ten": 1863,
      "Ġpass": 1864,
      "rence": 1865,
      "Ġexpl": 1866,
      "Ġfr": 1867,
      "Ġmonth": 1868,
      "ĠTo": 1869,
      "Ġcent": 1870,
      "Ġrest": 1871,
      "Ġcompany": 1872,
      "Ġbetter": 1873,
      "Ġbuild": 1874,
      "ately": 1875,
      "Ġ+": 1876,
      "ified": 1877,
      "Ġstand": 1878,
      "Ġalways": 1879,
      "Ġrece": 1880,
      "ered": 1881,
      "Ġreport": 1882,
      "Ġcome": 1883,
      "ccess": 1884,
      "ware": 1885,
      "Ġinc": 1886,
      "ĠShe": 1887,
      "ished": 1888,
      "ization": 1889,
      "Ġorgan": 1890,
      "Ġide": 1891,
      "min": 1892,
      "Ġwr": 1893,
      "Ġmoney": 1894,
      "Ġanother": 1895,
      "Ġpower": 1896,
      "Ġwebs": 1897,
      "ma": 1898,
      "Ġwithin": 1899,
      "iving": 1900,
      "Ġaff": 1901,
      "ĠAmeric": 1902,
      "IN": 1903,
      "Ġlaw": 1904,
      "Ġexperience": 1905,
      "Ġsomething": 1906,
      "Ġask": 1907,
      "amb": 1908,
      "Ġdi": 1909,
      "ee": 1910,
      "Ġleg": 1911,
      "ering": 1912,
      "Ġfunction": 1913,
      "lease": 1914,
      "Ġlet": 1915,
      "Ġcost": 1916,
      "ON": 1917,
      "Ġavailable": 1918,
      "ĠTr": 1919,
      "Ġ/": 1920,
      "Ġsure": 1921,
      "sh": 1922,
      "Ġlittle": 1923,
      "med": 1924,
      "put": 1925,
      "ividual": 1926,
      "Ġdirect": 1927,
      "aj": 1928,
      "}$": 1929,
      "Ġopp": 1930,
      "Ġput": 1931,
      "Ġoper": 1932,
      "Ġbr": 1933,
      "ote": 1934,
      "Ġprovide": 1935,
      "hor": 1936,
      "ability": 1937,
      "Ġpop": 1938,
      "ĠInd": 1939,
      "Ġhead": 1940,
      "Ġca": 1941,
      "oot": 1942,
      "Ġben": 1943,
      "Ġmet": 1944,
      "atic": 1945,
      "Ġservice": 1946,
      ",\"": 1947,
      "ĠEx": 1948,
      "}\\": 1949,
      "Ġterm": 1950,
      "Ġhum": 1951,
      "ĠSo": 1952,
      "here": 1953,
      "ource": 1954,
      "elf": 1955,
      "pos": 1956,
      "Ġbig": 1957,
      "Ġproject": 1958,
      "Ġsince": 1959,
      "orn": 1960,
      "Ġsecond": 1961,
      "ann": 1962,
      "iven": 1963,
      "Ġwin": 1964,
      "inal": 1965,
      "Ġnever": 1966,
      "Ġfamily": 1967,
      "Ġlove": 1968,
      "Ġlo": 1969,
      "Ġpresent": 1970,
      "ains": 1971,
      "Ġactiv": 1972,
      "Ġaccount": 1973,
      "cing": 1974,
      "Ġunderstand": 1975,
      "Ġopt": 1976,
      "ĠZ": 1977,
      "ĠCon": 1978,
      "Ġpar": 1979,
      "Ġturn": 1980,
      "Ġgrow": 1981,
      "Ġele": 1982,
      "^{": 1983,
      "Ġintern": 1984,
      "ember": 1985,
      "If": 1986,
      "ream": 1987,
      "Ġless": 1988,
      "let": 1989,
      "ration": 1990,
      "ron": 1991,
      "Ġcurrent": 1992,
      "itions": 1993,
      "Ġindividual": 1994,
      "Ġwater": 1995,
      "Ġagainst": 1996,
      "Ġaccess": 1997,
      "ĠIs": 1998,
      "Ġvalue": 1999,
      "ĠâĢĺ": 2000,
      "ior": 2001,
      "Ġprom": 2002,
      "Ġcond": 2003,
      "Ġrese": 2004,
      "ask": 2005,
      "oint": 2006,
      "ds": 2007,
      "cri": 2008,
      "Ġsite": 2009,
      "Ġgive": 2010,
      "Ġdem": 2011,
      "ĊĠĠĠĠĠĠĠĠĠĠĠĠĠĠĠ": 2012,
      "Ġtype": 2013,
      "ox": 2014,
      "Ġnext": 2015,
      "Ġservices": 2016,
      ".,": 2017,
      "Ġbody": 2018,
      "Ġhard": 2019,
      "Ġgames": 2020,
      "Ġbro": 2021,
      "ral": 2022,
      "ission": 2023,
      "AT": 2024,
      "Ġ//": 2025,
      "Ġbre": 2026,
      "Ġbelie": 2027,
      "Ġschool": 2028,
      "Ġold": 2029,
      "iety": 2030,
      "Ġcertain": 2031,
      "ush": 2032,
      "uck": 2033,
      "Ġmethod": 2034,
      "ĠLe": 2035,
      "ently": 2036,
      "cur": 2037,
      "itive": 2038,
      "Ġmov": 2039,
      "ray": 2040,
      "Ġanal": 2041,
      "val": 2042,
      "oh": 2043,
      "ium": 2044,
      "ained": 2045,
      "oci": 2046,
      "rist": 2047,
      "ateg": 2048,
      "ĠGod": 2049,
      "ted": 2050,
      "ĠAll": 2051,
      "ems": 2052,
      "Ġbeh": 2053,
      "ention": 2054,
      "ĠSp": 2055,
      "Ġimpro": 2056,
      "Ġfriend": 2057,
      "arent": 2058,
      "ortun": 2059,
      "ged": 2060,
      "aim": 2061,
      "Ġdays": 2062,
      "Ġve": 2063,
      "aut": 2064,
      "ination": 2065,
      "Ġapplic": 2066,
      "ards": 2067,
      "\",": 2068,
      "Ġcap": 2069,
      "Ġchange": 2070,
      "ĠWhen": 2071,
      "vern": 2072,
      "Ġmus": 2073,
      "ĊĠĠĠĠĠĠĠĠĠĠĠĠĠĠĠĠ": 2074,
      "mb": 2075,
      "ised": 2076,
      "Ġline": 2077,
      "Ġview": 2078,
      "RE": 2079,
      "ĠĠĠĠĠĠĠĠĠĠĠĠĠĠĠĠĠĠĠĠĠĠĠĠĠĠĠĠĠĠĠĠ": 2080,
      "Ġchang": 2081,
      "Ġdownload": 2082,
      "aterial": 2083,
      "ww": 2084,
      "Ġtreat": 2085,
      "Ġnon": 2086,
      "ured": 2087,
      "ably": 2088,
      "ery": 2089,
      "Ġgroup": 2090,
      "set": 2091,
      "Ġconn": 2092,
      "vious": 2093,
      "reen": 2094,
      "ĠBe": 2095,
      "iron": 2096,
      "right": 2097,
      "ories": 2098,
      "://": 2099,
      "Ġpract": 2100,
      "iversity": 2101,
      "Ġlim": 2102,
      "Ġcell": 2103,
      "lood": 2104,
      "ĠSc": 2105,
      "equ": 2106,
      "Ġmaking": 2107,
      "Ġunt": 2108,
      "Ġconsider": 2109,
      "Ġself": 2110,
      "Ġgot": 2111,
      "Ġemploy": 2112,
      "rap": 2113,
      "isk": 2114,
      "ĠBl": 2115,
      "ĠPh": 2116,
      "Ġcasino": 2117,
      "ĊĊĠĠĠ": 2118,
      "Ġgovern": 2119,
      "por": 2120,
      "ording": 2121,
      "ending": 2122,
      "ency": 2123,
      "illion": 2124,
      "Ġsing": 2125,
      "ret": 2126,
      "Ġkind": 2127,
      "for": 2128,
      "Ġlight": 2129,
      "use": 2130,
      "orts": 2131,
      "Ġbenef": 2132,
      "Ġes": 2133,
      "Ġvide": 2134,
      "Ġmen": 2135,
      "Ġlarge": 2136,
      "Ġhist": 2137,
      "ina": 2138,
      "Ġpossible": 2139,
      "att": 2140,
      "Ġcheck": 2141,
      "Ġ_": 2142,
      "ĠThese": 2143,
      "Ġdev": 2144,
      "Ġoften": 2145,
      "ĠÂ": 2146,
      "Ġwebsite": 2147,
      "ĠThat": 2148,
      "Ġgl": 2149,
      "ived": 2150,
      "Ġ:": 2151,
      "ĠWith": 2152,
      "fig": 2153,
      "Ġ@": 2154,
      "ern": 2155,
      "lish": 2156,
      "->": 2157,
      "not": 2158,
      "icle": 2159,
      "Ġoffer": 2160,
      "Ġtyp": 2161,
      "Ġspecial": 2162,
      "ify": 2163,
      "Ġeng": 2164,
      "}}": 2165,
      "Ġworking": 2166,
      "Ġbas": 2167,
      "Ġ,": 2168,
      "Ġsuccess": 2169,
      "Ġident": 2170,
      "ocus": 2171,
      "[@": 2172,
      "Ġocc": 2173,
      "ĠApp": 2174,
      "Ġreview": 2175,
      "Ġaway": 2176,
      "Ġsocial": 2177,
      "(\"": 2178,
      "Ġsever": 2179,
      "Ġmeet": 2180,
      "Ġbased": 2181,
      "Ġredu": 2182,
      "ances": 2183,
      "ĠUS": 2184,
      "Ġwhy": 2185,
      "ury": 2186,
      "ĠHowever": 2187,
      "Ġcreate": 2188,
      "Ġmeans": 2189,
      "ulation": 2190,
      "new": 2191,
      "You": 2192,
      "Ġfac": 2193,
      "ument": 2194,
      "ĠComm": 2195,
      "ST": 2196,
      "irc": 2197,
      "book": 2198,
      "Ġcontrol": 2199,
      "âĢĶ": 2200,
      "Ġlooking": 2201,
      "mber": 2202,
      "Ġmult": 2203,
      "As": 2204,
      "comm": 2205,
      "Ġfollowing": 2206,
      "ours": 2207,
      "Ġlocal": 2208,
      "ats": 2209,
      "',": 2210,
      "ising": 2211,
      "ĠTe": 2212,
      "idence": 2213,
      "iting": 2214,
      "Ġrequire": 2215,
      "Ġexample": 2216,
      "Ġcomplete": 2217,
      "Ġchildren": 2218,
      "fra": 2219,
      "iver": 2220,
      "Ġpot": 2221,
      "Ġactually": 2222,
      "urther": 2223,
      "Ġproducts": 2224,
      "Ġprofess": 2225,
      "ump": 2226,
      "raw": 2227,
      "Ġ#": 2228,
      "Ġspecific": 2229,
      "Ġtrad": 2230,
      "Ġcreat": 2231,
      "type": 2232,
      "ĠRes": 2233,
      "Ġbecome": 2234,
      "Ġpriv": 2235,
      "Ġlearn": 2236,
      "ird": 2237,
      "ended": 2238,
      "ique": 2239,
      "Ġevent": 2240,
      "Ġtimes": 2241,
      "Ġwrit": 2242,
      "Ġmean": 2243,
      "outh": 2244,
      "ope": 2245,
      "ries": 2246,
      "Ġparticular": 2247,
      "uro": 2248,
      "Ġseveral": 2249,
      "Ġmove": 2250,
      "Ġthing": 2251,
      "Ġindust": 2252,
      "by": 2253,
      "--------": 2254,
      "Ġhaving": 2255,
      "elt": 2256,
      "Ġwomen": 2257,
      "acy": 2258,
      "Ġpa": 2259,
      "Ġfood": 2260,
      "ĠFr": 2261,
      "Ġpersonal": 2262,
      "Ġtem": 2263,
      "conom": 2264,
      "br": 2265,
      "Ġbegin": 2266,
      "lection": 2267,
      "li": 2268,
      "Ġtalk": 2269,
      "aster": 2270,
      "Ġarea": 2271,
      "ready": 2272,
      "Ġlive": 2273,
      "Ġmar": 2274,
      "AR": 2275,
      "Ġleft": 2276,
      "Ġresults": 2277,
      "ID": 2278,
      "Ġfour": 2279,
      "ane": 2280,
      "He": 2281,
      "ole": 2282,
      "Ġtoget": 2283,
      "Ġtogether": 2284,
      "Ġothers": 2285,
      "Ġstudy": 2286,
      "de": 2287,
      "ajor": 2288,
      "Ġreason": 2289,
      "agement": 2290,
      "ĠWhat": 2291,
      "ĠOr": 2292,
      "(\\": 2293,
      "Ġcourse": 2294,
      "ĠAt": 2295,
      "Ġet": 2296,
      "ott": 2297,
      "joy": 2298,
      "duct": 2299,
      "Ġla": 2300,
      "abel": 2301,
      "Ġclear": 2302,
      "resent": 2303,
      "une": 2304,
      "Ġlow": 2305,
      "ither": 2306,
      "fer": 2307,
      "Ġalong": 2308,
      "Ġhig": 2309,
      "OR": 2310,
      "acter": 2311,
      "ĠChrist": 2312,
      "son": 2313,
      "Ġmind": 2314,
      "Ġmaterial": 2315,
      "();": 2316,
      "Pro": 2317,
      "ipp": 2318,
      "Ġhouse": 2319,
      "Ġfund": 2320,
      "ales": 2321,
      "pect": 2322,
      "ĠNo": 2323,
      "uture": 2324,
      "Ġside": 2325,
      "roll": 2326,
      "Ġresearch": 2327,
      "Ġcalled": 2328,
      "etwork": 2329,
      "Ġtoday": 2330,
      "ĠCan": 2331,
      "Ġsw": 2332,
      "Ġelect": 2333,
      "osed": 2334,
      "yn": 2335,
      "Ġgiven": 2336,
      "ression": 2337,
      "Ġinclude": 2338,
      "viron": 2339,
      "ĠX": 2340,
      "Ġsignific": 2341,
      "ĠSu": 2342,
      "Ġant": 2343,
      "side": 2344,
      "pecial": 2345,
      "Ġneeds": 2346,
      "ĠCol": 2347,
      "Ġfocus": 2348,
      "Ġinvol": 2349,
      "Ġalready": 2350,
      "ney": 2351,
      "ails": 2352,
      "Ġwhether": 2353,
      "Ch": 2354,
      "ilar": 2355,
      "atures": 2356,
      "Ġcontent": 2357,
      "ffic": 2358,
      "ĠâĢĶ": 2359,
      "Ġfore": 2360,
      "vert": 2361,
      "icy": 2362,
      "Ġrelations": 2363,
      "Ġmain": 2364,
      "Ġdeal": 2365,
      "utes": 2366,
      "Ġsex": 2367,
      "Ġrecord": 2368,
      "bal": 2369,
      "Ġtre": 2370,
      "begin": 2371,
      "yle": 2372,
      "Ġfar": 2373,
      "Ġhuman": 2374,
      "Ġweight": 2375,
      "crib": 2376,
      "ides": 2377,
      "Ġpast": 2378,
      "aring": 2379,
      "umm": 2380,
      "rop": 2381,
      "Ġdr": 2382,
      "augh": 2383,
      "Ġwar": 2384,
      "Ġfield": 2385,
      "tr": 2386,
      "Ġann": 2387,
      "Ġhold": 2388,
      "Ġmakes": 2389,
      "EN": 2390,
      "Ġz": 2391,
      "Ġjo": 2392,
      "Ġpress": 2393,
      "Ġnear": 2394,
      "Con": 2395,
      "ĠMan": 2396,
      "Ġstudents": 2397,
      "Ġcal": 2398,
      "Ġroom": 2399,
      "Ġmembers": 2400,
      "ype": 2401,
      "AN": 2402,
      "Ġeasy": 2403,
      "orth": 2404,
      "Ex": 2405,
      "Ġcommunity": 2406,
      "Ġmajor": 2407,
      "Ġkey": 2408,
      "Ġuntil": 2409,
      "Ġphot": 2410,
      "Ġener": 2411,
      "ases": 2412,
      "Ġshort": 2413,
      "Ġrisk": 2414,
      "Ġcourt": 2415,
      "rict": 2416,
      "Ġmom": 2417,
      "ĠMay": 2418,
      "aps": 2419,
      "ĠMar": 2420,
      "Ġamount": 2421,
      "ental": 2422,
      "Ġnat": 2423,
      "Ġland": 2424,
      "Ġquality": 2425,
      "ene": 2426,
      "Ġenjoy": 2427,
      "Ġenough": 2428,
      "ows": 2429,
      "inc": 2430,
      "Ġvers": 2431,
      "iod": 2432,
      "Ġdeterm": 2433,
      "Ġey": 2434,
      "Ġweb": 2435,
      "Ġmodel": 2436,
      "Ġclaim": 2437,
      "utions": 2438,
      "gs": 2439,
      "mm": 2440,
      "Ġloss": 2441,
      "wards": 2442,
      "uly": 2443,
      "ively": 2444,
      "Ġstep": 2445,
      "Ġoffic": 2446,
      "ference": 2447,
      "Ġtry": 2448,
      "ids": 2449,
      "Ġblood": 2450,
      "ler": 2451,
      "Ġdone": 2452,
      "dd": 2453,
      "Ġtell": 2454,
      "Ġsays": 2455,
      "Ġorig": 2456,
      "Ġtrue": 2457,
      "Ġquick": 2458,
      "AL": 2459,
      "back": 2460,
      "For": 2461,
      "Ġobject": 2462,
      "Ġcountry": 2463,
      "Ġbuy": 2464,
      "ches": 2465,
      "Ġproblem": 2466,
      "Ġdidn": 2467,
      "cal": 2468,
      "Ġvideo": 2469,
      "sy": 2470,
      "},": 2471,
      "itor": 2472,
      "irl": 2473,
      "lement": 2474,
      "ored": 2475,
      "ape": 2476,
      "idd": 2477,
      "Ġauthor": 2478,
      "Ġacross": 2479,
      "Ġcommon": 2480,
      "Ġgetting": 2481,
      "Ġexce": 2482,
      "Ġsoft": 2483,
      "Ġmeas": 2484,
      "vironment": 2485,
      "Ġstrong": 2486,
      "Ġsignificant": 2487,
      "Ġess": 2488,
      "Ġpri": 2489,
      "ibility": 2490,
      "Ġmot": 2491,
      "Ġdevelopment": 2492,
      "Ġbit": 2493,
      "ES": 2494,
      "Ġmach": 2495,
      "ony": 2496,
      "rain": 2497,
      "Ġ...": 2498,
      "Ġfuture": 2499,
      "part": 2500,
      "plic": 2501,
      "sw": 2502,
      "Ġleast": 2503,
      "Ġdue": 2504,
      "ples": 2505,
      "Ġever": 2506,
      "To": 2507,
      "though": 2508,
      "ips": 2509,
      "What": 2510,
      "Ġgovernment": 2511,
      "che": 2512,
      "Ġens": 2513,
      "ohn": 2514,
      "Ġphys": 2515,
      "Ġspace": 2516,
      "Ġknown": 2517,
      "ĠÐ": 2518,
      "ources": 2519,
      ")$": 2520,
      "eb": 2521,
      "Ġdoing": 2522,
      "most": 2523,
      "Ġeduc": 2524,
      "eral": 2525,
      "ister": 2526,
      "Ġelse": 2527,
      "IT": 2528,
      "An": 2529,
      "ule": 2530,
      "Ġdiff": 2531,
      "ogn": 2532,
      "ply": 2533,
      "aining": 2534,
      "ians": 2535,
      "Ġamong": 2536,
      "aken": 2537,
      "ley": 2538,
      "ched": 2539,
      "Ġcomes": 2540,
      "Ġopportun": 2541,
      "ograph": 2542,
      "Cl": 2543,
      "Ġprob": 2544,
      "}{": 2545,
      "arget": 2546,
      "alf": 2547,
      "Ġonce": 2548,
      "Ġpage": 2549,
      "lu": 2550,
      "Ġcou": 2551,
      "Ġcame": 2552,
      "Ġlink": 2553,
      "osp": 2554,
      "unt": 2555,
      "How": 2556,
      "Ġtot": 2557,
      "Ġcompan": 2558,
      "ĠCo": 2559,
      "Ġcomb": 2560,
      "Ġyoung": 2561,
      "Ġnight": 2562,
      "play": 2563,
      "Ã©": 2564,
      "Ġappear": 2565,
      "ĠUnited": 2566,
      "Ġfre": 2567,
      "ggest": 2568,
      "Ġcult": 2569,
      "Ġx": 2570,
      "Ġvarious": 2571,
      "Ġhy": 2572,
      "Ġtool": 2573,
      "Ġpurch": 2574,
      "lished": 2575,
      "Ġrequest": 2576,
      "urs": 2577,
      "ai": 2578,
      "ĠEng": 2579,
      "ĠUniversity": 2580,
      "ĠEn": 2581,
      "ancial": 2582,
      "There": 2583,
      "Ġenergy": 2584,
      "Ġenc": 2585,
      "Ġinit": 2586,
      "agn": 2587,
      "Ġstat": 2588,
      "go": 2589,
      "ges": 2590,
      "enn": 2591,
      "Ġerr": 2592,
      "ams": 2593,
      "'re": 2594,
      "rect": 2595,
      "Ġthought": 2596,
      "aff": 2597,
      "Ġrelationship": 2598,
      "Ġair": 2599,
      "ĠYour": 2600,
      "imate": 2601,
      "ĠMy": 2602,
      "ĠAm": 2603,
      "Ġdri": 2604,
      "_{\\": 2605,
      "Ġhowever": 2606,
      "Ġquestion": 2607,
      "ification": 2608,
      "Ġce": 2609,
      "ift": 2610,
      "fect": 2611,
      "Ġeconom": 2612,
      "ĠDo": 2613,
      "Ġrespons": 2614,
      "Ġaddress": 2615,
      "uation": 2616,
      "ites": 2617,
      "Ġheart": 2618,
      "Ġdiscuss": 2619,
      "ĠCent": 2620,
      "Ġsingle": 2621,
      "uff": 2622,
      "ault": 2623,
      "ober": 2624,
      "Ġperiod": 2625,
      "On": 2626,
      "ules": 2627,
      "reg": 2628,
      "Ġcred": 2629,
      "Ġabove": 2630,
      "ctor": 2631,
      "ĠSy": 2632,
      "Ġsuggest": 2633,
      "Ġassoci": 2634,
      "Ġhappen": 2635,
      "cle": 2636,
      "Ġpotential": 2637,
      "ĠInst": 2638,
      "Ġlater": 2639,
      "Ġmess": 2640,
      "Wh": 2641,
      "onse": 2642,
      "hing": 2643,
      "ĠCont": 2644,
      "Ġenh": 2645,
      "ners": 2646,
      "ully": 2647,
      "Ġsuper": 2648,
      "ued": 2649,
      "Ġimprove": 2650,
      "Com": 2651,
      "('": 2652,
      "ĠOne": 2653,
      "Ġnecess": 2654,
      "face": 2655,
      "ĠAmerican": 2656,
      "action": 2657,
      "aces": 2658,
      "ones": 2659,
      "asing": 2660,
      "Ġobs": 2661,
      "Ġexist": 2662,
      "clus": 2663,
      "Ġface": 2664,
      "ume": 2665,
      "Ġincrease": 2666,
      "Ġsent": 2667,
      "Ġstory": 2668,
      "ilities": 2669,
      "Ġtook": 2670,
      "irt": 2671,
      "irm": 2672,
      "ledge": 2673,
      "Ġvol": 2674,
      "frac": 2675,
      "Ġchall": 2676,
      "ĠCar": 2677,
      "Ġdoesn": 2678,
      "Ġstruct": 2679,
      "Ġfurther": 2680,
      "].": 2681,
      "Ġjob": 2682,
      "ysis": 2683,
      "Ġtax": 2684,
      "ocument": 2685,
      "Ġcontact": 2686,
      "Ġmil": 2687,
      "ml": 2688,
      "Ġrele": 2689,
      "Ġfav": 2690,
      "))": 2691,
      "ĠServ": 2692,
      "uf": 2693,
      "ĠMed": 2694,
      "Re": 2695,
      "Ġrepresent": 2696,
      "verage": 2697,
      "ĠPr": 2698,
      "Ġearly": 2699,
      "add": 2700,
      "Ġsize": 2701,
      "Ġwa": 2702,
      "],": 2703,
      "ser": 2704,
      "Ġcompet": 2705,
      "Ġpatients": 2706,
      "Ġoffers": 2707,
      "Ġrange": 2708,
      "ĠState": 2709,
      "Ġstarted": 2710,
      "Ġsimilar": 2711,
      "Ġindustry": 2712,
      "Ġtext": 2713,
      "Ġbrand": 2714,
      "Ġyet": 2715,
      "Ġmonths": 2716,
      "iff": 2717,
      "icult": 2718,
      "Ġaction": 2719,
      "Ġclose": 2720,
      "Ġconcer": 2721,
      "itted": 2722,
      "Ġmaint": 2723,
      "eter": 2724,
      "Ġwind": 2725,
      "IC": 2726,
      "str": 2727,
      "Ġshare": 2728,
      "Ġbring": 2729,
      "Ġsearch": 2730,
      "Ġvi": 2731,
      "Ġcompanies": 2732,
      "Ġprice": 2733,
      "When": 2734,
      "ison": 2735,
      "Ġregard": 2736,
      "Ġmass": 2737,
      "ĠAfter": 2738,
      "ĠĠĠĠĠ": 2739,
      "Ġoil": 2740,
      "angu": 2741,
      "selves": 2742,
      "now": 2743,
      "****": 2744,
      "used": 2745,
      "ators": 2746,
      "Ġvisit": 2747,
      "Ġcrit": 2748,
      "Ġpopular": 2749,
      "Ġpack": 2750,
      "Ġmusic": 2751,
      "Ġnetwork": 2752,
      "lobal": 2753,
      "ĠAss": 2754,
      "Ġgen": 2755,
      "Ġfeatures": 2756,
      "Ġrequired": 2757,
      "Ġwalk": 2758,
      "rm": 2759,
      "pecially": 2760,
      "Ġlog": 2761,
      "abor": 2762,
      "ength": 2763,
      "Ġseen": 2764,
      "Ġmillion": 2765,
      "Ġrespect": 2766,
      "Ġselect": 2767,
      "Ġsimply": 2768,
      "chie": 2769,
      "Ġtaking": 2770,
      "Ġmedia": 2771,
      "AS": 2772,
      "cont": 2773,
      "Ġcity": 2774,
      "Ġlikely": 2775,
      "atform": 2776,
      "Ġupon": 2777,
      "ĠNe": 2778,
      "hers": 2779,
      "Ġfail": 2780,
      "Ġut": 2781,
      "Ġwhole": 2782,
      "Ġpain": 2783,
      "Ġsimple": 2784,
      "ED": 2785,
      "Ġabs": 2786,
      "ager": 2787,
      "Ġfinal": 2788,
      "Ġeither": 2789,
      "iple": 2790,
      "Ġwent": 2791,
      "curity": 2792,
      "ĠRep": 2793,
      "Ġdig": 2794,
      "Ġport": 2795,
      "AC": 2796,
      "Ġproperty": 2797,
      "ĠJohn": 2798,
      "Ġissues": 2799,
      "ging": 2800,
      "Ġhours": 2801,
      "Ġhistory": 2802,
      "ĠStates": 2803,
      "Ġnatural": 2804,
      "ication": 2805,
      "Ġpolit": 2806,
      "ends": 2807,
      "##": 2808,
      "Ġenvironment": 2809,
      "But": 2810,
      "ĠEuro": 2811,
      "Ġestab": 2812,
      "Ġtreatment": 2813,
      "Ġfile": 2814,
      "Ġobt": 2815,
      "place": 2816,
      "Ġways": 2817,
      "Ġshall": 2818,
      "Ġage": 2819,
      "Ġcamp": 2820,
      "cite": 2821,
      "Ġsomeone": 2822,
      "ks": 2823,
      "Ġworks": 2824,
      "Ġtable": 2825,
      "ĠBy": 2826,
      "Ġbreak": 2827,
      "Ġcirc": 2828,
      "af": 2829,
      "Ġ</": 2830,
      "Ġdifficult": 2831,
      "icro": 2832,
      "Ġhigher": 2833,
      "Ġprivate": 2834,
      "ruction": 2835,
      "Ġprevious": 2836,
      "Ġcharacter": 2837,
      "Ġgeneral": 2838,
      "ĠGo": 2839,
      "unction": 2840,
      "Ġsubject": 2841,
      "urch": 2842,
      "Ġeverything": 2843,
      "illed": 2844,
      "Ġparticip": 2845,
      "Ġbelieve": 2846,
      "Ġseem": 2847,
      "ĠOur": 2848,
      "Ġcustomers": 2849,
      "obile": 2850,
      "Ġfive": 2851,
      "where": 2852,
      "ned": 2853,
      "Ġwon": 2854,
      "Ġentire": 2855,
      "reme": 2856,
      "Ġhtt": 2857,
      "empt": 2858,
      "ung": 2859,
      "ĠIntern": 2860,
      "Ġbeaut": 2861,
      "Ġstay": 2862,
      "mp": 2863,
      "Ġcomput": 2864,
      "Ġchoose": 2865,
      "orld": 2866,
      "Ġpercent": 2867,
      "Ġfriends": 2868,
      "ires": 2869,
      "čĊ": 2870,
      "bb": 2871,
      "Ġassist": 2872,
      "Ġfinancial": 2873,
      "Ġmatter": 2874,
      "ĠCO": 2875,
      "Ġposition": 2876,
      "ables": 2877,
      "ĠMe": 2878,
      "name": 2879,
      "Ġbar": 2880,
      "epend": 2881,
      "And": 2882,
      "Ġplayers": 2883,
      "Ġagree": 2884,
      "Ġparent": 2885,
      "Ġprovides": 2886,
      "IS": 2887,
      "head": 2888,
      "ried": 2889,
      "rel": 2890,
      "Ġblack": 2891,
      "opy": 2892,
      "Ġtold": 2893,
      "Ġnorm": 2894,
      "Ġarg": 2895,
      "ĠGu": 2896,
      "opp": 2897,
      "iate": 2898,
      "raft": 2899,
      "bo": 2900,
      "Ġoptions": 2901,
      "Ġpub": 2902,
      "this": 2903,
      "Ġrecomm": 2904,
      "ands": 2905,
      "Ġimpact": 2906,
      "olution": 2907,
      "Ġexpect": 2908,
      "Ġseason": 2909,
      "Ġaccept": 2910,
      "Ġmor": 2911,
      "wise": 2912,
      "Ġperformance": 2913,
      "Ġbelow": 2914,
      "Ġpen": 2915,
      "Ġpills": 2916,
      "rodu": 2917,
      "Ġperfect": 2918,
      "Ġexperien": 2919,
      "aging": 2920,
      "ĠJan": 2921,
      "Ġstore": 2922,
      "urance": 2923,
      "su": 2924,
      "Ġnews": 2925,
      "Ġsafe": 2926,
      "uses": 2927,
      "itle": 2928,
      "igure": 2929,
      "Ġidea": 2930,
      "Ġcannot": 2931,
      "========": 2932,
      "Ġtechnology": 2933,
      "izing": 2934,
      "ourn": 2935,
      "ĠSome": 2936,
      "time": 2937,
      "Ġdam": 2938,
      "Ġrole": 2939,
      "ĠComp": 2940,
      "fl": 2941,
      "Sh": 2942,
      "Ġsell": 2943,
      "Ġneg": 2944,
      "Ġterms": 2945,
      "Ġclean": 2946,
      "'m": 2947,
      "Ġdescrib": 2948,
      "Ġsat": 2949,
      "ĠSte": 2950,
      "cription": 2951,
      "ological": 2952,
      "Ġsound": 2953,
      "Ġprovided": 2954,
      "istic": 2955,
      "org": 2956,
      "LE": 2957,
      "Ġuser": 2958,
      "ises": 2959,
      "Ġespecially": 2960,
      "Ġtaken": 2961,
      "Ġcut": 2962,
      "Ġpath": 2963,
      "Ġbuilding": 2964,
      "Ġaud": 2965,
      "Ġrate": 2966,
      "Ġtw": 2967,
      "Ġste": 2968,
      "Ġalmost": 2969,
      "imal": 2970,
      "Ġlower": 2971,
      "iction": 2972,
      "ilt": 2973,
      "wh": 2974,
      "Ġachie": 2975,
      "Ġdom": 2976,
      "hib": 2977,
      "Ġanything": 2978,
      "ĠHis": 2979,
      "label": 2980,
      "Ġissue": 2981,
      "Ġfall": 2982,
      "ball": 2983,
      "Ġ--": 2984,
      "Ġgirl": 2985,
      "Ġtarget": 2986,
      "Ġcoun": 2987,
      "Ġcases": 2988,
      "ights": 2989,
      "aged": 2990,
      "rew": 2991,
      "ibr": 2992,
      "Ġthird": 2993,
      "Ġcard": 2994,
      "yl": 2995,
      "erc": 2996,
      "Ġbank": 2997,
      "Name": 2998,
      "Ġdou": 2999,
      "Ġquestions": 3000,
      "Ġwords": 3001,
      "Ġtraining": 3002,
      "ĠEurope": 3003,
      "Ġjud": 3004,
      "atory": 3005,
      "rem": 3006,
      "Ġchanges": 3007,
      "ĠFl": 3008,
      "itional": 3009,
      "Ġpick": 3010,
      "Ġextra": 3011,
      "osted": 3012,
      "):": 3013,
      "Ġyourself": 3014,
      "Ġvari": 3015,
      "Ġansw": 3016,
      "gress": 3017,
      "Ġrather": 3018,
      "eq": 3019,
      "Al": 3020,
      "Ġsites": 3021,
      "ĠCal": 3022,
      "bl": 3023,
      "Ġlat": 3024,
      "ns": 3025,
      "room": 3026,
      "osing": 3027,
      "div": 3028,
      "Ġupd": 3029,
      "ogle": 3030,
      "Ġindic": 3031,
      "rs": 3032,
      "....": 3033,
      "rown": 3034,
      "aving": 3035,
      "Ġprim": 3036,
      "Ġrecogn": 3037,
      "come": 3038,
      "Ġwatch": 3039,
      "Ġsecurity": 3040,
      "Ġtrying": 3041,
      "ĠTH": 3042,
      "alse": 3043,
      "Ġdeb": 3044,
      "Ġasked": 3045,
      "bd": 3046,
      "ĠNot": 3047,
      "Ġcode": 3048,
      "Ġmoment": 3049,
      "iter": 3050,
      "Ġcause": 3051,
      "ensive": 3052,
      "fort": 3053,
      "Ġlevels": 3054,
      "Ġplatform": 3055,
      "Ġdefin": 3056,
      "Ġlonger": 3057,
      "Id": 3058,
      "ze": 3059,
      "Ġdeath": 3060,
      "ada": 3061,
      "Ġtrack": 3062,
      "Ġproblems": 3063,
      "Ġemail": 3064,
      "eta": 3065,
      "Ġneeded": 3066,
      "Ġapproach": 3067,
      "roid": 3068,
      "Ġapplication": 3069,
      "Ġcoll": 3070,
      "Ġensure": 3071,
      "Ġconditions": 3072,
      "Ġtotal": 3073,
      "Ġred": 3074,
      "Ġhot": 3075,
      "ĊĠĠĠĠĠĠĠĠĠĠĠĠĠĠĠĠĠĠĠ": 3076,
      "ufact": 3077,
      "Ġusually": 3078,
      "import": 3079,
      "ari": 3080,
      "cript": 3081,
      "Ġ*/": 3082,
      "cret": 3083,
      "mod": 3084,
      "Ġsoftware": 3085,
      "Ġunique": 3086,
      "anced": 3087,
      "Ġfront": 3088,
      "ĠPol": 3089,
      "ees": 3090,
      "Ġenhance": 3091,
      "Ġseries": 3092,
      "ension": 3093,
      "uary": 3094,
      "Ġaccording": 3095,
      "Ġimm": 3096,
      "Ġusers": 3097,
      "ground": 3098,
      "Cont": 3099,
      "ivity": 3100,
      "Ġconsum": 3101,
      "oph": 3102,
      "Ġcollect": 3103,
      "left": 3104,
      "unch": 3105,
      "Ġsystems": 3106,
      "ided": 3107,
      "lex": 3108,
      "Ġeffective": 3109,
      "fully": 3110,
      "artment": 3111,
      "minist": 3112,
      "Ġplaying": 3113,
      "Ġeveryone": 3114,
      "ĠMore": 3115,
      "Ġwriting": 3116,
      "Ġprofessional": 3117,
      "ram": 3118,
      "itten": 3119,
      "ender": 3120,
      "ety": 3121,
      "Ġwide": 3122,
      "Ġprior": 3123,
      "imum": 3124,
      "gest": 3125,
      "Ġmanagement": 3126,
      "Ġblock": 3127,
      "my": 3128,
      "Ġhalf": 3129,
      "Ġdate": 3130,
      "ĠMin": 3131,
      "ĠYork": 3132,
      "ĠDep": 3133,
      "Ġpie": 3134,
      "lege": 3135,
      "Ġquite": 3136,
      "ille": 3137,
      "Ġtravel": 3138,
      "irit": 3139,
      "Ġevents": 3140,
      "col": 3141,
      "Ġinstall": 3142,
      "Ġknowledge": 3143,
      "Ġcreated": 3144,
      "Ġcontinue": 3145,
      "Ġlay": 3146,
      "Ġevidence": 3147,
      "ĠEd": 3148,
      "ga": 3149,
      "ĠCour": 3150,
      "Ġareas": 3151,
      "pose": 3152,
      "Ġanalysis": 3153,
      "ĠAg": 3154,
      "Ġcy": 3155,
      "Ġcontrib": 3156,
      "Ġcontract": 3157,
      "oad": 3158,
      "ĠAug": 3159,
      "ĠOct": 3160,
      "ĠChe": 3161,
      "uth": 3162,
      "Ġbon": 3163,
      "ĠMarch": 3164,
      "Ġâ": 3165,
      "'ve": 3166,
      "ival": 3167,
      "Ġappe": 3168,
      "ĊĠĠĠĠĠĠĠĠĠĠĠĠĠĠĠĠĠĠĠĠĠĠĠĠ": 3169,
      "Ġadded": 3170,
      "anguage": 3171,
      "ĠQu": 3172,
      "ava": 3173,
      "Ġmale": 3174,
      "Ġoption": 3175,
      "hold": 3176,
      "roups": 3177,
      "ession": 3178,
      "Ġinside": 3179,
      "Res": 3180,
      "Ġtypes": 3181,
      "Ġnothing": 3182,
      "Ġpoints": 3183,
      "Ġbad": 3184,
      "uild": 3185,
      "Ġliving": 3186,
      "Ġpred": 3187,
      "Ġparty": 3188,
      "pre": 3189,
      "tery": 3190,
      "Ġcells": 3191,
      "pril": 3192,
      "Ġstop": 3193,
      "Ġshows": 3194,
      "Ġpers": 3195,
      "itting": 3196,
      "AM": 3197,
      "ĠWhile": 3198,
      "Ġbi": 3199,
      "ĊĊĠĠĠĠĠĠĠ": 3200,
      "Ġadditional": 3201,
      "ief": 3202,
      "CT": 3203,
      "htt": 3204,
      "Ġsens": 3205,
      "ĠPe": 3206,
      "idth": 3207,
      "ude": 3208,
      "based": 3209,
      "Type": 3210,
      "Ġeffects": 3211,
      "ster": 3212,
      "itch": 3213,
      "Ġrad": 3214,
      "ĠCount": 3215,
      "Ġexact": 3216,
      "Ar": 3217,
      "ĠJune": 3218,
      "})": 3219,
      "$.": 3220,
      "String": 3221,
      "reet": 3222,
      "bar": 3223,
      "Ġautom": 3224,
      "astic": 3225,
      "With": 3226,
      "Ġprevent": 3227,
      "Ġgra": 3228,
      "ĠPart": 3229,
      "Ġdise": 3230,
      "oon": 3231,
      "leep": 3232,
      "Ġminutes": 3233,
      "RO": 3234,
      "ĠPres": 3235,
      "anc": 3236,
      "Ġground": 3237,
      "apt": 3238,
      "Ġwond": 3239,
      "ION": 3240,
      "ception": 3241,
      "lt": 3242,
      "ĠAct": 3243,
      "Ġlegal": 3244,
      "$,": 3245,
      "Ġfoot": 3246,
      "Ġessential": 3247,
      "Ġprotect": 3248,
      "ext": 3249,
      "Ġsoon": 3250,
      "____": 3251,
      "Ġwanted": 3252,
      "ĊĠĠĠĠĠĠĠĠĠ": 3253,
      "inary": 3254,
      "def": 3255,
      "overed": 3256,
      "Ġprobably": 3257,
      "ags": 3258,
      "verse": 3259,
      "Ġpolicy": 3260,
      "uge": 3261,
      "Ðµ": 3262,
      "Ġcustomer": 3263,
      "Ġfavor": 3264,
      "ĠCB": 3265,
      "Ġdru": 3266,
      "Ġnecessary": 3267,
      "Ġden": 3268,
      "class": 3269,
      "Ġslot": 3270,
      "ET": 3271,
      "ambling": 3272,
      "key": 3273,
      "ĠCity": 3274,
      "Ġindividuals": 3275,
      "Ġlearning": 3276,
      "etimes": 3277,
      "Ġgrowth": 3278,
      "sec": 3279,
      "Ġtakes": 3280,
      "aching": 3281,
      "sequ": 3282,
      "Ġhom": 3283,
      "Ġmiss": 3284,
      "bf": 3285,
      "Ġdecision": 3286,
      "ĠDes": 3287,
      "So": 3288,
      "Ġep": 3289,
      "Ġbehind": 3290,
      "rec": 3291,
      "Ġvia": 3292,
      "oring": 3293,
      "Ġcredit": 3294,
      "}.": 3295,
      "ĠMark": 3296,
      "Ġbenefits": 3297,
      "Ġpressure": 3298,
      "Ġofficial": 3299,
      "Ġsix": 3300,
      "ache": 3301,
      "Ġversion": 3302,
      "Ġmedical": 3303,
      "Ġisn": 3304,
      "da": 3305,
      "body": 3306,
      "Ġoutside": 3307,
      "Ġdest": 3308,
      "Ġsense": 3309,
      "'ll": 3310,
      "Ġheld": 3311,
      "Ġconnect": 3312,
      "ĠĠĠĠĠĠ": 3313,
      "Ġviol": 3314,
      "Ġregular": 3315,
      "AP": 3316,
      "Ġpaper": 3317,
      "ĠBr": 3318,
      "earch": 3319,
      "ĠDis": 3320,
      "Ġarticle": 3321,
      "rences": 3322,
      "Ġflo": 3323,
      "Ġdistrib": 3324,
      "Ġoffice": 3325,
      "Ġgold": 3326,
      "Ġill": 3327,
      "Ġcoming": 3328,
      "plement": 3329,
      "ĠAf": 3330,
      "pha": 3331,
      "ĠNational": 3332,
      "oud": 3333,
      "ĠSept": 3334,
      "oved": 3335,
      "ĠBo": 3336,
      "ĠInt": 3337,
      "Ġallows": 3338,
      "Ġreceived": 3339,
      "nov": 3340,
      "Ġwhite": 3341,
      "ovember": 3342,
      "edd": 3343,
      "Ġresponse": 3344,
      "Ġvariety": 3345,
      "ĠWorld": 3346,
      "mit": 3347,
      "sub": 3348,
      "Ġexc": 3349,
      "Ġmax": 3350,
      "emic": 3351,
      "na": 3352,
      "ana": 3353,
      "Ġworth": 3354,
      "erous": 3355,
      "Ġfast": 3356,
      "Ġ)": 3357,
      "Ġquickly": 3358,
      "Ġavoid": 3359,
      "Ġdeep": 3360,
      "ta": 3361,
      "Ġreceive": 3362,
      "Ġsam": 3363,
      "LL": 3364,
      "ached": 3365,
      "Ġrelated": 3366,
      ",\\": 3367,
      "like": 3368,
      "By": 3369,
      "ĠCor": 3370,
      "ĊĊĠ": 3371,
      "Ġhost": 3372,
      "ey": 3373,
      "aced": 3374,
      "Ġobserv": 3375,
      "Ġda": 3376,
      "Ġchoice": 3377,
      "Ġfamil": 3378,
      "Ġability": 3379,
      "coming": 3380,
      "Ġeffic": 3381,
      "Ġintrodu": 3382,
      "rag": 3383,
      "Ġsection": 3384,
      "ades": 3385,
      "Ġpositive": 3386,
      "Ġitself": 3387,
      "idered": 3388,
      "Ð°": 3389,
      "Ġpractice": 3390,
      "Ġproduction": 3391,
      "Ġincludes": 3392,
      "Ġimmed": 3393,
      "Ġeducation": 3394,
      "Ġrights": 3395,
      "Ġago": 3396,
      "Ġcompl": 3397,
      "reng": 3398,
      "Ġoriginal": 3399,
      "Ġblog": 3400,
      "Ġthroughout": 3401,
      "Ġur": 3402,
      "Ġcook": 3403,
      "Ġdeg": 3404,
      "Ġdesigned": 3405,
      "ĠAust": 3406,
      "ĠPer": 3407,
      "Ġintegr": 3408,
      "do": 3409,
      "iful": 3410,
      "Ġsource": 3411,
      "Ġforward": 3412,
      "Ġmarketing": 3413,
      "iation": 3414,
      "Ġactivities": 3415,
      "ĠAb": 3416,
      "ĠJuly": 3417,
      "Ġstandard": 3418,
      "ĠApril": 3419,
      "ht": 3420,
      "ĠSouth": 3421,
      "Ġple": 3422,
      "Ġopportunity": 3423,
      "ipment": 3424,
      "Ġtrust": 3425,
      "oura": 3426,
      "ĊĠĠ": 3427,
      "Ġsepar": 3428,
      "icles": 3429,
      "Ġreading": 3430,
      "Ġthemselves": 3431,
      "ĠJust": 3432,
      "Ġapply": 3433,
      "ĠAugust": 3434,
      "ĠDr": 3435,
      "pri": 3436,
      "Ġmanufact": 3437,
      "igation": 3438,
      "Ġeyes": 3439,
      "ror": 3440,
      "Ġsolution": 3441,
      "ĠThen": 3442,
      "Ġpict": 3443,
      "ening": 3444,
      "cember": 3445,
      "Ġaccom": 3446,
      "Ġrecent": 3447,
      "erg": 3448,
      "ĠGr": 3449,
      "Ġhon": 3450,
      "uted": 3451,
      "CR": 3452,
      "Ġinj": 3453,
      "Ġvac": 3454,
      "Ġfire": 3455,
      "Ġsaw": 3456,
      "ĠHealth": 3457,
      "Ġactivity": 3458,
      "opt": 3459,
      "Ġsal": 3460,
      "erve": 3461,
      "ĠCourt": 3462,
      "Ġstates": 3463,
      "Ġconsidered": 3464,
      "Ġword": 3465,
      "Ġbed": 3466,
      "umb": 3467,
      "Ġitems": 3468,
      "Ġattack": 3469,
      "ops": 3470,
      "ĠIm": 3471,
      "Ġexpress": 3472,
      "ĠGe": 3473,
      "ties": 3474,
      "Ġcertainly": 3475,
      "Ġstaff": 3476,
      "word": 3477,
      "ux": 3478,
      "Ġmachine": 3479,
      "Ġprep": 3480,
      "Ġsett": 3481,
      "ming": 3482,
      "Ġver": 3483,
      "ĠFeb": 3484,
      "ĠHere": 3485,
      "Ġgroups": 3486,
      "ĠJanuary": 3487,
      "era": 3488,
      "Ġcolor": 3489,
      "Ġbase": 3490,
      "âĢĵ": 3491,
      "Val": 3492,
      "Ġengine": 3493,
      "Ġtask": 3494,
      "eed": 3495,
      "cul": 3496,
      "Ġsubst": 3497,
      "Ġbehav": 3498,
      "Ġ!": 3499,
      "isf": 3500,
      "Ġtrial": 3501,
      "Ġimage": 3502,
      "oke": 3503,
      "Ġ>": 3504,
      "Ġcover": 3505,
      "Ġsports": 3506,
      "oice": 3507,
      "order": 3508,
      "Ġheav": 3509,
      "Ġvalues": 3510,
      "Ġsum": 3511,
      "Ġseems": 3512,
      "Ġinternet": 3513,
      "Ġconsist": 3514,
      "Ġmatch": 3515,
      "Ġmultiple": 3516,
      "ama": 3517,
      "Ġlives": 3518,
      "Ġord": 3519,
      "Ġshown": 3520,
      "cast": 3521,
      "Ġdiet": 3522,
      "off": 3523,
      "comes": 3524,
      "Ġinflu": 3525,
      "Ġphone": 3526,
      "mathcal": 3527,
      "pper": 3528,
      "ĠMc": 3529,
      "lier": 3530,
      "Ġdetails": 3531,
      "Ġplease": 3532,
      "Ġhands": 3533,
      "ĠCr": 3534,
      "Ġpret": 3535,
      "Ġspeak": 3536,
      "iddle": 3537,
      "Ġcomplex": 3538,
      "Ġprint": 3539,
      "Ġtou": 3540,
      "Ġexec": 3541,
      "uk": 3542,
      "ĠBar": 3543,
      "ĠUs": 3544,
      "ĠOf": 3545,
      "itation": 3546,
      "equation": 3547,
      "ĠNow": 3548,
      "resp": 3549,
      "ĠOctober": 3550,
      "Ġphysical": 3551,
      "year": 3552,
      "Ġinstead": 3553,
      "Ġglobal": 3554,
      "span": 3555,
      "Ġwoman": 3556,
      "aur": 3557,
      "Ġleave": 3558,
      "Ġerror": 3559,
      "Ġstyle": 3560,
      "Ġchalleng": 3561,
      "UR": 3562,
      "Ġmember": 3563,
      "inos": 3564,
      "Ġinitial": 3565,
      "Ġcry": 3566,
      "ĠTra": 3567,
      "ceed": 3568,
      "oker": 3569,
      "Ġassociated": 3570,
      "Ġleaders": 3571,
      "Ġregul": 3572,
      "Ġattempt": 3573,
      "iday": 3574,
      "ĠWill": 3575,
      "ĠSeptember": 3576,
      "ĠSm": 3577,
      "Ġinvolved": 3578,
      "Ġeasily": 3579,
      "ĠAdd": 3580,
      "Ġfat": 3581,
      "asons": 3582,
      "ĠAcc": 3583,
      "Ġrev": 3584,
      "Ġbegan": 3585,
      "ĠReg": 3586,
      "osit": 3587,
      "cies": 3588,
      "Ġbecame": 3589,
      "OT": 3590,
      "Ġcondition": 3591,
      "ĠPar": 3592,
      "itter": 3593,
      "ĠNovember": 3594,
      "www": 3595,
      "iles": 3596,
      "var": 3597,
      "Ġsaf": 3598,
      "Ġdocument": 3599,
      "Ġrunning": 3600,
      "chan": 3601,
      "vant": 3602,
      "Ġdraw": 3603,
      "Ġroad": 3604,
      "Ġcountries": 3605,
      "Ġsec": 3606,
      "Ġstress": 3607,
      "ruary": 3608,
      "Ġcosts": 3609,
      "ĠHar": 3610,
      "List": 3611,
      "gar": 3612,
      "ING": 3613,
      "isions": 3614,
      "pped": 3615,
      "Ġsil": 3616,
      "ategy": 3617,
      "return": 3618,
      "Ġweeks": 3619,
      "Ġstreng": 3620,
      "dom": 3621,
      "Ph": 3622,
      "Ġcorrect": 3623,
      "Ġskin": 3624,
      "Ġreported": 3625,
      "ĊĊĠĠĠĠĠĠĠĠĠĠĠ": 3626,
      ".)": 3627,
      "hood": 3628,
      "Ġdark": 3629,
      "Ġmethods": 3630,
      "Ġconduct": 3631,
      "ederal": 3632,
      "ĠNorth": 3633,
      "ev": 3634,
      "ĠStud": 3635,
      "Ġadvant": 3636,
      "Ġattention": 3637,
      "Ġinsp": 3638,
      "Ġwritten": 3639,
      "Ġfix": 3640,
      "Ġmobile": 3641,
      "etic": 3642,
      "Ġid": 3643,
      "Ġimplement": 3644,
      "Ġmother": 3645,
      "Ġhope": 3646,
      "Ġ[[@": 3647,
      "Un": 3648,
      "Ċĉĉĉĉ": 3649,
      "Ġbal": 3650,
      "Ġstudies": 3651,
      "Ġpric": 3652,
      "Ġund": 3653,
      "Ġflow": 3654,
      "umn": 3655,
      "amed": 3656,
      "Ġanyone": 3657,
      "Ġveh": 3658,
      "haps": 3659,
      "}(": 3660,
      "atives": 3661,
      "light": 3662,
      "Ġdecl": 3663,
      "AD": 3664,
      "airs": 3665,
      "inf": 3666,
      "All": 3667,
      "ĠDecember": 3668,
      "ĠSchool": 3669,
      "Ġvoid": 3670,
      "Ġdirectly": 3671,
      "itution": 3672,
      "log": 3673,
      "cil": 3674,
      "gen": 3675,
      "Ġ`": 3676,
      "Ġready": 3677,
      "Ġincluded": 3678,
      "aling": 3679,
      "Ġfrequ": 3680,
      "Ġnational": 3681,
      "ĠFrom": 3682,
      "Ġplant": 3683,
      "Ġfit": 3684,
      "Ġextreme": 3685,
      "Ġones": 3686,
      "ĠFin": 3687,
      "Ġcross": 3688,
      "Ġsubs": 3689,
      "resh": 3690,
      "Ġdigital": 3691,
      "Ġstra": 3692,
      "Ġfilm": 3693,
      "Ġcomfort": 3694,
      "Ġwrite": 3695,
      "ĠGet": 3696,
      "Ġbooks": 3697,
      "just": 3698,
      "Ġenter": 3699,
      "Ġpurchase": 3700,
      "Ð¸": 3701,
      "Ġclients": 3702,
      "ĠAmerica": 3703,
      "td": 3704,
      "Ġsales": 3705,
      "Ġpropos": 3706,
      "Ġscreen": 3707,
      "esus": 3708,
      "Ġlanguage": 3709,
      "Ġannoun": 3710,
      "Ġexcell": 3711,
      "Ġpolitical": 3712,
      "Ġgrad": 3713,
      "ĠWar": 3714,
      "NA": 3715,
      "mat": 3716,
      "lim": 3717,
      "ha": 3718,
      "CO": 3719,
      "ĠCBD": 3720,
      "aches": 3721,
      "sych": 3722,
      "Ġfelt": 3723,
      "Ġcurrently": 3724,
      "Ġcompon": 3725,
      "Ġclick": 3726,
      "Ġchance": 3727,
      "Ġsituation": 3728,
      "Ġinsurance": 3729,
      "ĠDon": 3730,
      "Ġexpected": 3731,
      "Ġprec": 3732,
      "Ġbott": 3733,
      "Ġutil": 3734,
      "Ġanswer": 3735,
      "pack": 3736,
      "Ġtools": 3737,
      "Tr": 3738,
      "function": 3739,
      "ament": 3740,
      "ĠPa": 3741,
      "aign": 3742,
      "Ġdiv": 3743,
      "Ġreve": 3744,
      "Ġnature": 3745,
      "Ġcommit": 3746,
      "Ġ==": 3747,
      "param": 3748,
      "Ġcam": 3749,
      "ĠMr": 3750,
      "Ġbeautiful": 3751,
      "Ġcash": 3752,
      "Ġeval": 3753,
      "Ġcouple": 3754,
      "At": 3755,
      "Ġmention": 3756,
      "\"}": 3757,
      "illing": 3758,
      "ĠArt": 3759,
      "Ġgambling": 3760,
      "Ġtowards": 3761,
      "Ġwall": 3762,
      "Ġoccur": 3763,
      "Ġbox": 3764,
      "Ġexerc": 3765,
      "aming": 3766,
      "ĠSoc": 3767,
      "Ġcompletely": 3768,
      "Ġanaly": 3769,
      "arily": 3770,
      "Ġgives": 3771,
      "View": 3772,
      "Ġdemon": 3773,
      "Ġappl": 3774,
      "ibly": 3775,
      "Ġinternational": 3776,
      "US": 3777,
      "ĠEl": 3778,
      "Ġnormal": 3779,
      "Ġhimself": 3780,
      "Ġetc": 3781,
      "Ġlate": 3782,
      "mission": 3783,
      "Ċĉĉĉ": 3784,
      "Ġskills": 3785,
      "}^": 3786,
      "Ġresources": 3787,
      "Ġdisplay": 3788,
      "oper": 3789,
      "Ġsafety": 3790,
      "lling": 3791,
      "Ġadminist": 3792,
      "ĠPresident": 3793,
      "aves": 3794,
      "ĠSupp": 3795,
      "Ġstri": 3796,
      "Ġlif": 3797,
      "ependent": 3798,
      "ij": 3799,
      "Ġserious": 3800,
      "----------------": 3801,
      "gment": 3802,
      "Ġpurpose": 3803,
      "Ġpromot": 3804,
      "Ġbir": 3805,
      "aly": 3806,
      "\")": 3807,
      "Ġsus": 3808,
      "Ġleading": 3809,
      "Ġswe": 3810,
      "mbol": 3811,
      "Ġhor": 3812,
      "Ġfeed": 3813,
      "Ġgoal": 3814,
      "itary": 3815,
      "ĠGener": 3816,
      "Ġpan": 3817,
      "Ġincreased": 3818,
      "Ġacqu": 3819,
      "ĠHer": 3820,
      "Ġnull": 3821,
      "Ġaltern": 3822,
      "ĠChina": 3823,
      "Ġhair": 3824,
      "Ġprote": 3825,
      "Ġsleep": 3826,
      "Ġcomment": 3827,
      "Ġsche": 3828,
      "odes": 3829,
      "Ġremember": 3830,
      "ĠFebruary": 3831,
      "Ġlost": 3832,
      "uments": 3833,
      "Ġmessage": 3834,
      "oo": 3835,
      "iring": 3836,
      "idge": 3837,
      "itable": 3838,
      "alpha": 3839,
      "Ġlic": 3840,
      "Ġsqu": 3841,
      "];": 3842,
      "App": 3843,
      "Ġ=>": 3844,
      "Ġaware": 3845,
      "Ġhelps": 3846,
      "Ġlooked": 3847,
      "Ġmodern": 3848,
      "ĠAfric": 3849,
      "Get": 3850,
      "}_": 3851,
      "ĠRuss": 3852,
      "oly": 3853,
      "Ġball": 3854,
      "ournal": 3855,
      "ummies": 3856,
      "OS": 3857,
      "Ġrout": 3858,
      "Ġwrong": 3859,
      "rought": 3860,
      "Ġdefend": 3861,
      "Ġprograms": 3862,
      "Ġassess": 3863,
      "Ġdifference": 3864,
      "Ġmaterials": 3865,
      "Ġparts": 3866,
      "mitted": 3867,
      "ences": 3868,
      "Ġdisease": 3869,
      "ĠGerm": 3870,
      "One": 3871,
      "Ġcomputer": 3872,
      "Ġlocation": 3873,
      "Ġproced": 3874,
      "Ġdoor": 3875,
      "Ġfa": 3876,
      "Ġseek": 3877,
      "Ġsuff": 3878,
      "mon": 3879,
      "$\\": 3880,
      "Posted": 3881,
      "ĠAut": 3882,
      "ĠCons": 3883,
      "Ġworked": 3884,
      "Ġknew": 3885,
      "ĠEm": 3886,
      "enty": 3887,
      "Ġplayer": 3888,
      "Ġconvers": 3889,
      "Ġformer": 3890,
      "?\"": 3891,
      "Se": 3892,
      "ĠCounty": 3893,
      "rast": 3894,
      "Ġrecommend": 3895,
      "more": 3896,
      "Is": 3897,
      "field": 3898,
      "ĠVal": 3899,
      "Ġsatisf": 3900,
      "Ġrecently": 3901,
      "bor": 3902,
      "down": 3903,
      "acebook": 3904,
      "Ġdeveloped": 3905,
      "ĠJesus": 3906,
      "ĠWork": 3907,
      "uration": 3908,
      "Ġsn": 3909,
      "ests": 3910,
      "elta": 3911,
      "Ġreduce": 3912,
      "Ġdaily": 3913,
      "><": 3914,
      "Ġbuilt": 3915,
      "ÑĤ": 3916,
      "ĠAN": 3917,
      "~\\": 3918,
      "ym": 3919,
      "ĠOff": 3920,
      "Ġlimited": 3921,
      "ĠSystem": 3922,
      "Ġmeasure": 3923,
      "Ġaverage": 3924,
      "Ġemb": 3925,
      "Ġdetail": 3926,
      "Ġdevice": 3927,
      "inter": 3928,
      "Ġfalse": 3929,
      "ores": 3930,
      "Ġreach": 3931,
      "Ġfeature": 3932,
      "Ġorganization": 3933,
      "Ġhuge": 3934,
      "Ġunderstanding": 3935,
      "Ġstock": 3936,
      "Ġproviding": 3937,
      "ese": 3938,
      "Ġstring": 3939,
      "oms": 3940,
      "Ġcand": 3941,
      "Ġcat": 3942,
      "Ġdriv": 3943,
      "antly": 3944,
      "pite": 3945,
      "Ġstructure": 3946,
      "iately": 3947,
      "iam": 3948,
      "Ġparam": 3949,
      "ĠGoogle": 3950,
      "Ġexpert": 3951,
      "Ġideas": 3952,
      "Ġequipment": 3953,
      "Ġencoura": 3954,
      "clude": 3955,
      "Ġenhancement": 3956,
      "Ġmeeting": 3957,
      "Ġcompared": 3958,
      "Ġfight": 3959,
      "amm": 3960,
      "data": 3961,
      "aries": 3962,
      "Ġqual": 3963,
      "ĠIN": 3964,
      "Ġten": 3965,
      "Ġachieve": 3966,
      "Ġparents": 3967,
      "Ġhappy": 3968,
      "Ġspirit": 3969,
      "bject": 3970,
      "imately": 3971,
      "Ġsend": 3972,
      "table": 3973,
      "ĠDav": 3974,
      "Ġconcept": 3975,
      "yond": 3976,
      "iding": 3977,
      "Ġcele": 3978,
      "ĠTw": 3979,
      "Ġinform": 3980,
      "ĠHouse": 3981,
      "Ġsave": 3982,
      "'d": 3983,
      "ĠCas": 3984,
      "rack": 3985,
      "iber": 3986,
      "No": 3987,
      "arant": 3988,
      "Ġnote": 3989,
      "vey": 3990,
      "change": 3991,
      "Ġbroad": 3992,
      "Ġstrateg": 3993,
      "inding": 3994,
      "Ġnumbers": 3995,
      "ecause": 3996,
      "Ġthinking": 3997,
      "Ġmodels": 3998,
      "Ġlatest": 3999,
      "Ġmis": 4000,
      "lation": 4001,
      "Ġprinc": 4002,
      "Ġinvestment": 4003,
      "ĠMon": 4004,
      "ĠÃ": 4005,
      "umber": 4006,
      "ĠSw": 4007,
      "Ġround": 4008,
      "Ġclin": 4009,
      "Ġprojects": 4010,
      "Ġlack": 4011,
      "Ġrespond": 4012,
      "rapy": 4013,
      "Ġslow": 4014,
      "ĠChar": 4015,
      "ashing": 4016,
      "Ġdrive": 4017,
      "Ġsolutions": 4018,
      "het": 4019,
      "ocal": 4020,
      "Ġboard": 4021,
      "Ġturned": 4022,
      "Ġpretty": 4023,
      "see": 4024,
      "ĠFirst": 4025,
      "undred": 4026,
      "Ġappropri": 4027,
      "Ġdating": 4028,
      ")\\": 4029,
      "code": 4030,
      "ĠRead": 4031,
      "Ġfair": 4032,
      "Ġload": 4033,
      "ĠSee": 4034,
      "Ġhttps": 4035,
      "Col": 4036,
      "Ġuses": 4037,
      "Ġpartners": 4038,
      "\":": 4039,
      "Ġmyself": 4040,
      "ĠCenter": 4041,
      "Ġgave": 4042,
      "Ġspeed": 4043,
      "ĠMost": 4044,
      "></": 4045,
      "Ġgoes": 4046,
      "oe": 4047,
      "Ġincreasing": 4048,
      "Ġfactors": 4049,
      "Ġfather": 4050,
      "eters": 4051,
      "Ġdire": 4052,
      "apter": 4053,
      "Ġhighly": 4054,
      "Data": 4055,
      "Ġstrategy": 4056,
      "Ġsong": 4057,
      "izes": 4058,
      "Ġhit": 4059,
      "Ġaffect": 4060,
      "ĠSim": 4061,
      "Ġ%": 4062,
      "olute": 4063,
      "Ġregion": 4064,
      "ĠHigh": 4065,
      "Ġtown": 4066,
      "Ġtitle": 4067,
      "Ġkids": 4068,
      "ĠÎ": 4069,
      "Ġemployees": 4070,
      "html": 4071,
      "Ġwonder": 4072,
      "anks": 4073,
      "Ġexcellent": 4074,
      "uel": 4075,
      "Ġrules": 4076,
      "Ġstru": 4077,
      "Ġtherefore": 4078,
      "Le": 4079,
      "hern": 4080,
      "ĠBrit": 4081,
      "ils": 4082,
      "oul": 4083,
      "Ġeconomic": 4084,
      "Ġplans": 4085,
      "Ġtemper": 4086,
      "Im": 4087,
      "itely": 4088,
      "iment": 4089,
      "Ġvirt": 4090,
      "Ġpattern": 4091,
      "istics": 4092,
      "Ġpet": 4093,
      "Ġregarding": 4094,
      "Ġexactly": 4095,
      "Ġbud": 4096,
      "Ġsurpr": 4097,
      "ivil": 4098,
      "Ġcampaign": 4099,
      "ĠBlack": 4100,
      "abet": 4101,
      "attle": 4102,
      "itute": 4103,
      "Ġheard": 4104,
      "Ġcontain": 4105,
      "usher": 4106,
      "Ġstudent": 4107,
      "Ġmix": 4108,
      "My": 4109,
      "Ġemot": 4110,
      "Ġhealthy": 4111,
      "Ġclient": 4112,
      "ĠWest": 4113,
      "ĠAustral": 4114,
      "Ġlength": 4115,
      "pi": 4116,
      "Ġprogress": 4117,
      "Ġcreating": 4118,
      "ĠPark": 4119,
      "section": 4120,
      "Ġmer": 4121,
      "Ġmag": 4122,
      "Ġfem": 4123,
      "Ġmorning": 4124,
      "Ġcareer": 4125,
      "Ġmechan": 4126,
      "ĠLet": 4127,
      "ript": 4128,
      "Ġcenter": 4129,
      "lying": 4130,
      "VID": 4131,
      "ĠEnglish": 4132,
      "aled": 4133,
      "ened": 4134,
      "EO": 4135,
      "ternal": 4136,
      "Ġled": 4137,
      "Ġboy": 4138,
      "Ġgiving": 4139,
      "orage": 4140,
      "ambda": 4141,
      "Ġimmediately": 4142,
      "string": 4143,
      "bit": 4144,
      "CH": 4145,
      "Ġamaz": 4146,
      "Ġrequirements": 4147,
      "ography": 4148,
      "Ġsort": 4149,
      "Ġfirm": 4150,
      "Ġbonus": 4151,
      "Ġsold": 4152,
      "Ġded": 4153,
      "Ġlimit": 4154,
      "II": 4155,
      "Ġdat": 4156,
      "Ġmeaning": 4157,
      "const": 4158,
      "leg": 4159,
      "omen": 4160,
      "using": 4161,
      "Ġbrow": 4162,
      "Ġmedic": 4163,
      "overn": 4164,
      "Ġdead": 4165,
      "oles": 4166,
      "Ġbur": 4167,
      "iable": 4168,
      "Ġsun": 4169,
      "Ġrelease": 4170,
      "Ġbasis": 4171,
      "Ġculture": 4172,
      "Ġgreater": 4173,
      "mark": 4174,
      "nes": 4175,
      "Ġpublished": 4176,
      "Ġcharge": 4177,
      "Ġsuccessful": 4178,
      "Ġbrought": 4179,
      "IP": 4180,
      "ishing": 4181,
      "TM": 4182,
      "Ġelements": 4183,
      "ĠInc": 4184,
      "ought": 4185,
      "Ġwasn": 4186,
      "vis": 4187,
      "Ġfully": 4188,
      "Ġcollection": 4189,
      "\");": 4190,
      "Ġregist": 4191,
      "Ġbound": 4192,
      "nown": 4193,
      "Ġbenefit": 4194,
      "Ġactive": 4195,
      "ĠOnline": 4196,
      "Ġmicro": 4197,
      "Ġsometimes": 4198,
      "Ġinstru": 4199,
      "hel": 4200,
      "Ġthous": 4201,
      "ĠTHE": 4202,
      "ronic": 4203,
      "ero": 4204,
      "Ġpull": 4205,
      "list": 4206,
      "ĠGold": 4207,
      "Ġrates": 4208,
      "Ġpayment": 4209,
      "Ġbusinesses": 4210,
      "Ġvict": 4211,
      "Ġadult": 4212,
      "Ġcert": 4213,
      "UT": 4214,
      "igned": 4215,
      "Ġwel": 4216,
      "rial": 4217,
      "Ġcapt": 4218,
      "ĠEven": 4219,
      "ĠLaw": 4220,
      "Ġter": 4221,
      "Ġdecided": 4222,
      "Ġarch": 4223,
      "Ġquant": 4224,
      "That": 4225,
      "apan": 4226,
      "Ġlose": 4227,
      "After": 4228,
      "ĠIndia": 4229,
      "ĠFacebook": 4230,
      "ĠDepartment": 4231,
      "Ġteac": 4232,
      "Ġcarry": 4233,
      "ĠUK": 4234,
      "Ġ[@": 4235,
      "box": 4236,
      "uate": 4237,
      "ĠNews": 4238,
      "Ġstage": 4239,
      "Ġpaid": 4240,
      "ospital": 4241,
      "Ġaspect": 4242,
      "ĠKing": 4243,
      "wide": 4244,
      "Ġder": 4245,
      "ĠEvery": 4246,
      "Ġdetermine": 4247,
      "ĠMus": 4248,
      "Ġhundred": 4249,
      "Ġaim": 4250,
      "Ġlines": 4251,
      "Ġimages": 4252,
      "ĠAre": 4253,
      "actions": 4254,
      "Ġhear": 4255,
      "Ġtraditional": 4256,
      "Ġhop": 4257,
      "la": 4258,
      "Ġinstance": 4259,
      "ously": 4260,
      "Ġson": 4261,
      "Ġestablish": 4262,
      "Ġcasinos": 4263,
      "Ġexpression": 4264,
      "Ġcontext": 4265,
      "igma": 4266,
      "Ġsexual": 4267,
      "Ġcopy": 4268,
      "fficient": 4269,
      "amma": 4270,
      "Ġdrink": 4271,
      "ague": 4272,
      "Ġframe": 4273,
      "ĠPlay": 4274,
      "Ġprimary": 4275,
      "Ġing": 4276,
      "arc": 4277,
      "ĠServices": 4278,
      "Ġsaying": 4279,
      "ĠService": 4280,
      "Ġnotice": 4281,
      "ĠMany": 4282,
      "Ġreasons": 4283,
      "date": 4284,
      "Ġplayed": 4285,
      "Ġforce": 4286,
      "Ġadvert": 4287,
      "ken": 4288,
      "Ġlocated": 4289,
      "IM": 4290,
      "Ġcommer": 4291,
      "Ġfeeling": 4292,
      "Ġpolice": 4293,
      "Ġdemand": 4294,
      "Ġbeginning": 4295,
      "force": 4296,
      "ancy": 4297,
      "SS": 4298,
      "Ġstarting": 4299,
      "Ġcateg": 4300,
      "comp": 4301,
      "efore": 4302,
      "ĠDay": 4303,
      "bt": 4304,
      "ĠBro": 4305,
      "Ġanim": 4306,
      "aker": 4307,
      "ĠInternational": 4308,
      "Ġtransfer": 4309,
      "Our": 4310,
      "oes": 4311,
      "Ġcontinu": 4312,
      "izations": 4313,
      "rief": 4314,
      "Ġslots": 4315,
      "enge": 4316,
      "imin": 4317,
      "EM": 4318,
      "Ġpark": 4319,
      "Ġalone": 4320,
      "../": 4321,
      "ris": 4322,
      "Ġrelative": 4323,
      "Ġconnection": 4324,
      "itude": 4325,
      "Ġaw": 4326,
      "vest": 4327,
      "Ġtouch": 4328,
      "Ġopin": 4329,
      "ĠBest": 4330,
      "Ġstream": 4331,
      "ĠSch": 4332,
      "fered": 4333,
      "ibrary": 4334,
      "state": 4335,
      "mu": 4336,
      "ube": 4337,
      "Ġinteresting": 4338,
      "Ġbeyond": 4339,
      "yp": 4340,
      "Ġbasic": 4341,
      "ĠAc": 4342,
      "Ġrock": 4343,
      "Ġparticularly": 4344,
      "Ġinnov": 4345,
      "Ġ{#": 4346,
      "ancing": 4347,
      "value": 4348,
      "Ġprem": 4349,
      "ham": 4350,
      "Ġthreat": 4351,
      "top": 4352,
      "EC": 4353,
      "Ġsurface": 4354,
      "hest": 4355,
      "=\\": 4356,
      "ett": 4357,
      "ĠCommun": 4358,
      "band": 4359,
      "âĢĿ.": 4360,
      "')": 4361,
      "Ġstatement": 4362,
      "atur": 4363,
      "aught": 4364,
      "Ġcapital": 4365,
      "ĠTrans": 4366,
      "amic": 4367,
      "ĊĊĊĊ": 4368,
      "Ġremain": 4369,
      "Ġreviews": 4370,
      "ENT": 4371,
      "Ġimag": 4372,
      "osis": 4373,
      "ĠMich": 4374,
      "Ġfell": 4375,
      "Ġlooks": 4376,
      "Ġinterested": 4377,
      "asc": 4378,
      "Ġsurv": 4379,
      "Ġspend": 4380,
      "Ġwish": 4381,
      "ĠPat": 4382,
      "pen": 4383,
      "iforn": 4384,
      "ĠAssoci": 4385,
      "Ġcru": 4386,
      "Ġsale": 4387,
      "Ġpatient": 4388,
      "Ġneigh": 4389,
      "ĠCoun": 4390,
      "clusion": 4391,
      "Be": 4392,
      "Ġeffort": 4393,
      "ÂŃ": 4394,
      "Ġrequires": 4395,
      "acity": 4396,
      "with": 4397,
      "Ġri": 4398,
      "Ġstraight": 4399,
      "Ġgreen": 4400,
      "Ġdream": 4401,
      "anch": 4402,
      "Ġaccur": 4403,
      "Ġdepend": 4404,
      "ica": 4405,
      "Ġoffered": 4406,
      "Ġdemonstr": 4407,
      "istry": 4408,
      "Ġtrade": 4409,
      "Ġrefer": 4410,
      "AG": 4411,
      "Ġplaces": 4412,
      "iar": 4413,
      "Ñģ": 4414,
      "Ġtried": 4415,
      "Ġsust": 4416,
      "Ġdog": 4417,
      "čĊč": 4418,
      "Ġgenerally": 4419,
      "Ġtour": 4420,
      "ĠMod": 4421,
      "Ġgrowing": 4422,
      "Ġliter": 4423,
      "term": 4424,
      "Ġtruth": 4425,
      "board": 4426,
      "item": 4427,
      "Ġsupply": 4428,
      "tee": 4429,
      "Ġtele": 4430,
      "Ġoverall": 4431,
      "Ġbackground": 4432,
      "ĠTrump": 4433,
      "fr": 4434,
      "Ġwhose": 4435,
      "Ġrelig": 4436,
      "Ġobtain": 4437,
      "olic": 4438,
      "Ġstar": 4439,
      "Ġgas": 4440,
      "Ġactual": 4441,
      "Ġallowed": 4442,
      "zz": 4443,
      "Ġmoving": 4444,
      "Ġstrength": 4445,
      "Ind": 4446,
      "Ġcancer": 4447,
      "arge": 4448,
      "ocr": 4449,
      "Ġ':": 4450,
      "Ġgets": 4451,
      "Ġalthough": 4452,
      "file": 4453,
      "Ġinvestig": 4454,
      "ifornia": 4455,
      "chen": 4456,
      "ny": 4457,
      "Value": 4458,
      "Ġdamage": 4459,
      "Ġthus": 4460,
      "ĠDem": 4461,
      "ca": 4462,
      "aby": 4463,
      "CC": 4464,
      "Ġwood": 4465,
      "Ġconv": 4466,
      "pm": 4467,
      "unk": 4468,
      "Ġdescribed": 4469,
      "Ġdro": 4470,
      "ĠSer": 4471,
      "Ġreflect": 4472,
      "pec": 4473,
      "Ġmid": 4474,
      "Ġhistor": 4475,
      "Ġtick": 4476,
      "miss": 4477,
      "ports": 4478,
      "Ġcool": 4479,
      "reed": 4480,
      "ÑĢ": 4481,
      "Ġelement": 4482,
      "ifying": 4483,
      "ulf": 4484,
      "point": 4485,
      "irus": 4486,
      "Ġfear": 4487,
      "idents": 4488,
      "Ġsummer": 4489,
      "Ġvalid": 4490,
      "AB": 4491,
      "ĠAP": 4492,
      "Ġitem": 4493,
      "Ġapplications": 4494,
      "ĠDirect": 4495,
      "Ġbetting": 4496,
      "Ġconsult": 4497,
      "Ġ\\\\": 4498,
      "width": 4499,
      "Ġdoll": 4500,
      "ĠUp": 4501,
      "ĠRed": 4502,
      "Ġpsych": 4503,
      "Ad": 4504,
      "rupt": 4505,
      "Ġsequ": 4506,
      "Ġchem": 4507,
      "ĠOF": 4508,
      "Ġfine": 4509,
      "Ġclos": 4510,
      "********": 4511,
      "Ġpiece": 4512,
      "Ġmill": 4513,
      "Ġdegree": 4514,
      "ĠDist": 4515,
      "Ġchanged": 4516,
      "Ġpoker": 4517,
      "atever": 4518,
      "Ġthrow": 4519,
      "Ġdeliver": 4520,
      "Ġang": 4521,
      "iance": 4522,
      "Ġge": 4523,
      "Ġearlier": 4524,
      "Ġinterview": 4525,
      "IL": 4526,
      "Ġvoice": 4527,
      "Ġfinally": 4528,
      "urt": 4529,
      "Ġstatus": 4530,
      "ĠOther": 4531,
      "lay": 4532,
      "ondon": 4533,
      "Ġwife": 4534,
      "Ġotherwise": 4535,
      "They": 4536,
      "arrow": 4537,
      "lements": 4538,
      "mpt": 4539,
      "Ġplanning": 4540,
      "uy": 4541,
      "Ġattract": 4542,
      "Ġpowerful": 4543,
      "ĠFree": 4544,
      "ĠLord": 4545,
      "ares": 4546,
      "Ġfresh": 4547,
      "ocol": 4548,
      "Ġappropriate": 4549,
      "Ġpopulation": 4550,
      "Ġconcent": 4551,
      "lear": 4552,
      "Ġabsolute": 4553,
      "De": 4554,
      "Ġproduce": 4555,
      "mathbb": 4556,
      "Ġpartner": 4557,
      "Ġresponsible": 4558,
      "Ġdevices": 4559,
      "Ġsteps": 4560,
      "En": 4561,
      "Ġnice": 4562,
      "respond": 4563,
      "rote": 4564,
      "Ġshowed": 4565,
      "Ġdeposit": 4566,
      "Ġdang": 4567,
      "_\\": 4568,
      "Ġfeet": 4569,
      "Ġharm": 4570,
      "Ġfavorite": 4571,
      "Ġparties": 4572,
      "Ġconstruction": 4573,
      "Ġcommercial": 4574,
      "iled": 4575,
      "Ġnation": 4576,
      "cell": 4577,
      "ida": 4578,
      "Ġextremely": 4579,
      "Ġult": 4580,
      "men": 4581,
      "($": 4582,
      "EL": 4583,
      "Ġanti": 4584,
      "but": 4585,
      "icip": 4586,
      "Ġguide": 4587,
      "dis": 4588,
      "ĠSince": 4589,
      "New": 4590,
      "Ġpresident": 4591,
      "utive": 4592,
      "rael": 4593,
      "Ġdefinitely": 4594,
      "duc": 4595,
      "no": 4596,
      "IV": 4597,
      "}^{": 4598,
      "Ġmount": 4599,
      "ald": 4600,
      "Ġstories": 4601,
      "ĠPlease": 4602,
      "Ġcalcul": 4603,
      "Ġeasier": 4604,
      "df": 4605,
      "ushing": 4606,
      "Ġincome": 4607,
      "Ġfollowed": 4608,
      "osition": 4609,
      "ula": 4610,
      "Ġbirth": 4611,
      "rive": 4612,
      "yd": 4613,
      "ĠEuropean": 4614,
      "estern": 4615,
      "Ġarriv": 4616,
      "Ġprices": 4617,
      "Ġgoals": 4618,
      "Ġopportunities": 4619,
      "Ġnearly": 4620,
      "Add": 4621,
      "ĠSk": 4622,
      "ĠOut": 4623,
      "Ġspread": 4624,
      "ĠSan": 4625,
      "aste": 4626,
      "Ġsugar": 4627,
      "abetes": 4628,
      "ĠAlthough": 4629,
      "ivery": 4630,
      "vere": 4631,
      "Ġcelebr": 4632,
      "ĠJapan": 4633,
      "Ġguarant": 4634,
      "Ġscient": 4635,
      "ĠEar": 4636,
      "exp": 4637,
      "Ġcorpor": 4638,
      "wood": 4639,
      "Ġorigin": 4640,
      "Ġuseful": 4641,
      "Not": 4642,
      "Ġprefer": 4643,
      "Ġbrain": 4644,
      "Ġfaith": 4645,
      "She": 4646,
      "IG": 4647,
      "Ġcritical": 4648,
      "que": 4649,
      "?âĢĿ": 4650,
      "Ġir": 4651,
      "Ġestablished": 4652,
      "ĠHome": 4653,
      "ĠGroup": 4654,
      "Ġlarger": 4655,
      "net": 4656,
      "]].": 4657,
      "Ġhour": 4658,
      "Ġsetting": 4659,
      "Ġperhaps": 4660,
      "Ġdecre": 4661,
      "range": 4662,
      "ĠString": 4663,
      "Ġexisting": 4664,
      "Ġpenis": 4665,
      "spect": 4666,
      "Ġgummies": 4667,
      "Ġdiscover": 4668,
      "alt": 4669,
      "lin": 4670,
      "ĠPre": 4671,
      "Read": 4672,
      "Ġeye": 4673,
      "ech": 4674,
      "opping": 4675,
      "Ġ',": 4676,
      "Ġcommunic": 4677,
      "Int": 4678,
      "ĊĠĠĠĠĠĠĠĠĠĠĠĠĠĠĠĠĠĠĠĠĠĠĠ": 4679,
      "ĠSl": 4680,
      "Ġperformed": 4681,
      "Ġprofession": 4682,
      "Ġadvantage": 4683,
      "ĠPost": 4684,
      "}_{": 4685,
      "test": 4686,
      "rant": 4687,
      "ĠLa": 4688,
      "Ġfinding": 4689,
      "Ġstatic": 4690,
      "urb": 4691,
      "ĠCOVID": 4692,
      "Ġhous": 4693,
      "Ġkit": 4694,
      "zy": 4695,
      "ĠCalifornia": 4696,
      "Ġpresented": 4697,
      "bon": 4698,
      "ĠCanada": 4699,
      "Ġreleased": 4700,
      "ĠBusiness": 4701,
      "aughter": 4702,
      "annel": 4703,
      "Ġwild": 4704,
      "Ġexpand": 4705,
      "Ġsumm": 4706,
      "Ġburn": 4707,
      "Ġorg": 4708,
      "ĠTV": 4709,
      "px": 4710,
      "oday": 4711,
      "ĠCompany": 4712,
      "ĠSen": 4713,
      "essage": 4714,
      "Ġnegative": 4715,
      "ĠAlso": 4716,
      "Ġcompar": 4717,
      "ĠDef": 4718,
      "ferences": 4719,
      "Ġstrugg": 4720,
      "ĠTechn": 4721,
      "Ġwebsites": 4722,
      "gn": 4723,
      "Ġfamilies": 4724,
      "Ġbus": 4725,
      "Ġscience": 4726,
      "Ġrat": 4727,
      "Ġspent": 4728,
      "gal": 4729,
      "Ġestim": 4730,
      "ara": 4731,
      "rror": 4732,
      "ruit": 4733,
      "Ġgraph": 4734,
      "Ġnames": 4735,
      "ooth": 4736,
      "error": 4737,
      "Ġgrant": 4738,
      "UN": 4739,
      "arter": 4740,
      "edding": 4741,
      "ford": 4742,
      "Ġfunctions": 4743,
      "ĠBook": 4744,
      "Ġguid": 4745,
      "-\\": 4746,
      "Ġeat": 4747,
      "iated": 4748,
      "lor": 4749,
      "iques": 4750,
      "Ġbehavior": 4751,
      "public": 4752,
      "Ġwat": 4753,
      "Ġclaims": 4754,
      "rench": 4755,
      "Ġsecure": 4756,
      "ĠWeb": 4757,
      "ĠPhil": 4758,
      "ĠJe": 4759,
      "While": 4760,
      "Ġtransport": 4761,
      "plate": 4762,
      "bur": 4763,
      "array": 4764,
      "icon": 4765,
      "Ġsav": 4766,
      "Ġamazing": 4767,
      "aintiff": 4768,
      "encies": 4769,
      "Ġspect": 4770,
      "Ġwants": 4771,
      "angle": 4772,
      "ervice": 4773,
      "Ġsociety": 4774,
      "Ġdefined": 4775,
      "Ġspot": 4776,
      "Ġmovement": 4777,
      "Ġloan": 4778,
      "Ġproperties": 4779,
      "inct": 4780,
      "Ġtruly": 4781,
      "Ġbat": 4782,
      "requ": 4783,
      "Ġowners": 4784,
      "Ġcontains": 4785,
      "Ġadjust": 4786,
      "Ġarray": 4787,
      "Ġserver": 4788,
      "ĠSub": 4789,
      "Ġbudget": 4790,
      "Ġflu": 4791,
      "Ġmoved": 4792,
      "Ġvot": 4793,
      "Ġclub": 4794,
      "Ġpresence": 4795,
      "Ġrepe": 4796,
      "Ġcbd": 4797,
      "ĠTex": 4798,
[...]
